[UNK]
[SEP]
[PAD]
[CLS]
[MASK]
[URL]
[USER]
!
"
#
$
%
&
'
(
)
*
+
,
-
.
/
0
1
2
3
4
5
6
7
8
9
:
;
<
=
>
?
@
A
B
C
D
E
F
G
H
I
J
K
L
M
N
O
P
Q
R
S
T
U
V
W
X
Y
Z
[
\
]
^
_
`
a
b
c
d
e
f
g
h
i
j
k
l
m
n
o
p
q
r
s
t
u
v
w
x
y
z
{
|
}
~
¢
£
¥
¦
§
©
«
¬
®
°
±
¶
·
»
¿
Á
É
Ì
Ò
Ó
×
Ø
Ü
à
á
ä
è
é
í
ò
ó
ö
÷
ü
ŋ
Ō
ō
ŏ
ŧ
ū
ơ
ƪ
ȏ
ɑ
ɛ
ɜ
ɞ
ɦ
ɪ
ʃ
ʅ
ʔ
ʕ
ʖ
ʘ
ʚ
ʟ
ʬ
˂
˃
ˆ
ˇ
ˉ
ˊ
ˋ
ˍ
ˎ
˖
˗
ˬ
˵
˶
̀
́
̃
̄
̅
̆
̇
̈
̊
̑
̒
̖
̗
̣
̤
̥
̧
̨
̩
̫
̮
̯
̱
̳
̴
̵
̶
̷
͈
͙
͛
͜
͞
͟
͡
ͧ
Δ
Θ
Σ
Φ
Ψ
Ω
α
β
γ
ε
θ
ι
μ
ν
ξ
ο
π
ρ
σ
υ
φ
ψ
ω
Д
З
Ф
Я
а
д
з
н
о
т
ч
щ
э
ё
ө
ԅ
՞
֊
א
ا
س
ش
ص
ع
ق
ل
م
ه
و
ى
ي
٥
٩
ٹ
ڡ
۶
߹
ࡇ
ु
ू
॑
ঌ
ਊ
ੈ
੭
૭
୧
୨
இ
௰
౪
ಠ
ദ
ി
്
ෆ
ก
ค
ฅ
ง
ด
ท
น
บ
ม
ย
ร
ล
ว
อ
ั
า
ิ
ี
เ
่
้
ํ
๑
๓
๛
ິ
ີ
ຶ
໒
༎
༥
ཀ
ཫ
ི
ོ
ྀ
࿀
࿁
࿉
ა
ლ
ღ
ჱ
ᄀ
ᄂ
ᄃ
ᄅ
ᄆ
ᄇ
ᄉ
ᄋ
ᄌ
ᄍ
ᄎ
ᄏ
ᄐ
ᄑ
ᄒ
ᅀ
ᅇ
ᅌ
ᅙ
ᅠ
ᅡ
ᅢ
ᅣ
ᅥ
ᅦ
ᅧ
ᅩ
ᅮ
ᅲ
ᅳ
ᅵ
ᆞ
᎑
ᐕ
ᐖ
ᐙ
ᐛ
ᐝ
ᐟ
ᐠ
ᐡ
ᐢ
ᑋ
ᔦ
ᔨ
ᕕ
ᕗ
ᕙ
ᕤ
ᕦ
ᗜ
ᗨ
ᯅ
ᴖ
ᴗ
ᴜ
ᴥ
᷄
᷅
᷆
᷇
ọ
ὢ
ᾥ
​
‍
‐
–
—
―
‘
’
“
”
†
•
‧
‰
′
‵
‸
‹
›
※
‿
⁄
⁍
⁎
⁝
⁠
⁡
₩
€
⃘
⃙
⃛
⃝
⃣
←
↑
→
↓
↔
↗
↘
↝
⇄
⇆
⇐
⇒
⇔
⇨
⇩
⇽
∀
∂
∇
∈
∋
∑
−
∗
√
∞
∠
∥
∧
∩
∪
∫
∵
≒
≖
≠
≡
≦
≧
≪
≫
⊂
⊃
⊙
⊿
⋅
⋆
⋯
⌄
⌑
⌒
⌓
⌚
⌣
⌯
⏩
⏬
⏰
⏳
⑅
⑉
─
━
│
┃
┈
┌
┏
┐
┓
└
┗
┘
┛
┻
╥
╭
╮
╯
╰
╹
█
▓
■
□
▪
▫
▭
▲
△
▶
▷
►
▼
▽
▿
◀
◁
◆
◇
◉
◊
○
◌
◍
◎
●
◒
◔
◕
◜
◝
◞
◟
◠
◡
◢
◤
◥
◦
◯
◼
◾
☀
☁
☂
☃
☄
★
☆
☉
☎
☑
☓
☔
☕
☗
☘
☚
☜
☝
☞
☟
☠
☪
☮
☹
☺
☻
♀
♂
♠
♡
♣
♥
♦
♨
♩
♪
♫
♬
♭
♯
♻
♾
♿
⚐
⚑
⚒
⚓
⚔
⚕
⚙
⚜
⚠
⚡
⚪
⚫
⚰
⚽
⚾
⛄
⛅
⛈
⛑
⛓
⛩
⛪
⛰
⛱
⛲
⛳
⛴
⛵
⛷
⛸
⛹
⛺
⛽
✂
✅
✈
✉
✊
✋
✌
✍
✏
✒
✔
✕
✖
✝
✧
✨
✩
✪
✰
✳
✴
✿
❀
❁
❄
❅
❇
❋
❌
❎
❓
❔
❕
❗
❛
❢
❣
❤
❥
❶
❷
❸
❹
➕
➖
➡
➰
➿
⟵
⠀
⤴
⤵
⦅
⦆
⬅
⬆
⬇
⬛
⬜
⭐
⭕
⸒
⸜
⸝
、
。
〃
々
〆
〇
〈
〉
《
》
「
」
『
』
【
】
〒
〔
〕
〖
〗
〘
〙
〜
〝
〟
〠
〰
〼
〽
ぁ
あ
ぃ
い
ぅ
う
ぇ
え
ぉ
お
か
が
き
ぎ
く
ぐ
け
げ
こ
ご
さ
ざ
し
じ
す
ず
せ
ぜ
そ
ぞ
た
だ
ち
ぢ
っ
つ
づ
て
で
と
ど
な
に
ぬ
ね
の
は
ば
ぱ
ひ
び
ぴ
ふ
ぶ
ぷ
へ
べ
ぺ
ほ
ぼ
ぽ
ま
み
む
め
も
ゃ
や
ゅ
ゆ
ょ
よ
ら
り
る
れ
ろ
ゎ
わ
ゐ
ゑ
を
ん
ゔ
゙
゚
ゝ
ゞ
ァ
ア
ィ
イ
ゥ
ウ
ェ
エ
ォ
オ
カ
ガ
キ
ギ
ク
グ
ケ
ゲ
コ
ゴ
サ
ザ
シ
ジ
ス
ズ
セ
ゼ
ソ
ゾ
タ
ダ
チ
ヂ
ッ
ツ
ヅ
テ
デ
ト
ド
ナ
ニ
ヌ
ネ
ノ
ハ
バ
パ
ヒ
ビ
ピ
フ
ブ
プ
ヘ
ベ
ペ
ホ
ボ
ポ
マ
ミ
ム
メ
モ
ャ
ヤ
ュ
ユ
ョ
ヨ
ラ
リ
ル
レ
ロ
ヮ
ワ
ヰ
ヱ
ヲ
ン
ヴ
ヵ
ヶ
・
ー
ヽ
ヾ
ㄘ
㐂
一
丁
七
万
丈
三
上
下
不
与
丑
且
世
丘
丙
丞
両
並
个
中
串
丸
丹
主
丼
丿
乂
乃
久
么
之
乍
乏
乖
乗
乙
九
乞
也
乱
乳
乾
亀
了
予
争
事
二
云
互
五
井
亘
些
亜
亞
亡
交
亨
享
京
亭
亮
人
什
仁
仄
仇
今
介
仏
仔
仕
他
付
仙
代
令
以
仮
仰
仲
件
任
企
伊
伍
伎
伏
伐
休
会
伝
伯
伴
伸
伺
似
伽
佃
但
佇
位
低
住
佐
佑
体
何
余
佛
作
你
佳
併
使
來
例
侍
侑
侘
供
依
侠
価
侮
侯
侵
侶
便
係
促
俄
俊
俗
保
信
俣
修
俯
俳
俵
俸
俺
倅
倉
個
倍
倒
倖
候
借
倣
値
倦
倫
倭
倶
倹
偉
偏
偕
做
停
健
偲
側
偵
偶
偽
傀
傍
傑
傘
備
催
傭
傲
傳
債
傷
傾
僅
働
像
僕
僚
僧
僭
僻
儀
儂
億
儒
儘
儚
償
儡
優
儲
元
兄
充
兆
先
光
克
免
兎
児
党
兜
入
全
八
公
六
共
兵
其
具
典
兼
内
円
冊
再
冑
冒
冗
写
冠
冤
冥
冨
冬
冴
冶
冷
凄
准
凋
凌
凍
凛
凜
凝
几
凡
処
凧
凪
凰
凱
凶
凸
凹
出
函
刀
刃
分
切
刈
刊
刑
列
初
判
別
利
刮
到
制
刷
券
刹
刺
刻
剃
則
削
剋
前
剖
剛
剝
剣
剤
剥
剪
副
剰
剱
割
創
劇
劉
力
功
加
劣
助
努
劫
励
労
効
劾
勃
勅
勇
勉
勒
動
勘
務
勝
募
勢
勤
勧
勲
勾
勿
匂
包
化
北
匙
匠
匡
匹
区
医
匿
十
千
升
午
半
卍
卑
卒
卓
協
南
単
博
卜
占
卯
印
危
即
却
卵
卸
卿
厄
厘
厚
原
厨
厩
厭
厳
厶
去
参
又
叉
及
友
双
反
収
叔
取
受
叙
叡
叢
口
古
句
叩
只
叫
召
可
台
叱
史
右
叶
号
司
吃
各
合
吉
吊
同
名
后
吏
吐
向
君
吟
吠
否
吧
含
吸
吹
吽
吾
呂
呆
呈
呉
告
呑
呟
周
呪
味
呵
呼
命
咀
咄
咋
和
咎
咖
咤
咥
咫
咬
咲
咳
咽
哀
品
哉
員
哨
哭
哲
哺
唄
唆
唇
唐
唖
唯
唱
唸
唾
啄
商
啊
問
啓
啜
善
喉
喋
喘
喚
喜
喝
喧
喩
喪
喫
喬
喰
喱
営
嗅
嗚
嗜
嗟
嗣
嘆
嘉
嘔
嘗
嘘
嘩
嘱
嘲
噂
噌
噛
器
噴
噺
嚇
嚢
嚥
嚼
囀
囁
囃
囚
四
回
因
団
囧
困
囲
図
固
国
圃
國
圏
園
圓
團
土
圧
在
圭
地
址
坂
均
坊
坐
坑
坦
坪
垂
型
垢
垣
埃
埋
城
埜
域
埠
埴
執
培
基
埼
堀
堂
堅
堆
堕
堤
堪
堰
報
場
堵
堺
塀
塁
塊
塑
塔
塗
塙
塚
塞
塡
塩
填
塵
塾
境
墓
増
墜
墟
墨
墳
墾
壁
壇
壊
壌
壕
士
壬
壮
声
壱
売
壷
壺
壽
変
夏
夕
外
多
夜
夢
大
天
太
夫
央
失
夷
奄
奇
奈
奉
奎
奏
契
奔
套
奢
奥
奧
奨
奪
奮
女
奴
好
如
妃
妄
妊
妓
妖
妙
妥
妨
妬
妹
妻
姉
始
姐
姑
姓
委
姜
姥
姦
姨
姪
姫
姶
姻
姿
威
娑
娘
娠
娩
娯
婆
婚
婦
婿
媒
媚
媛
嫁
嫉
嫌
嫡
嬉
嬌
嬢
嬬
子
孔
孕
字
存
孝
孟
季
孤
学
孫
孵
學
宅
宇
守
安
完
宍
宏
宕
宗
官
宙
定
宛
宜
宝
実
客
宣
室
宥
宮
宰
害
宴
宵
家
容
宿
寂
寄
寅
密
富
寒
寛
寝
察
寡
實
寧
審
寮
寶
寸
寺
対
寿
封
専
射
将
尉
尊
尋
導
小
少
尖
尚
尤
就
尹
尺
尻
尼
尽
尾
尿
局
屁
居
屈
届
屋
屍
屏
屑
屓
展
属
屠
層
履
屯
山
岐
岡
岩
岬
岳
岸
峙
峠
峡
峨
峯
峰
島
峻
崇
崎
崖
崩
嵌
嵐
嵩
嵯
嶋
嶺
嶽
巌
川
州
巡
巣
工
左
巧
巨
巫
差
己
已
巳
巴
巷
巻
巽
巾
市
布
帆
希
帖
帝
帥
師
席
帯
帰
帳
常
帽
幅
幌
幕
幟
幡
幣
干
平
年
幸
幹
幻
幼
幽
幾
庁
広
庄
庇
床
序
底
店
庚
府
度
座
庫
庭
庵
庶
康
庸
廃
廉
廊
廟
廣
延
廷
建
廻
廿
弁
弄
弊
式
弐
弓
弔
引
弘
弛
弟
弥
弦
弧
弱
張
強
弾
彅
彌
当
彗
彙
彡
形
彦
彩
彫
彰
影
彷
役
彼
彿
往
征
径
待
很
徊
律
後
徐
徒
従
得
徘
御
徨
復
循
微
徳
徴
徹
心
必
忌
忍
忖
志
忘
忙
応
忠
快
念
忽
怒
怖
怜
思
怠
急
性
怨
怪
怯
恋
恍
恐
恒
恣
恥
恨
恩
恫
恭
息
恰
恵
悉
悔
悟
悠
患
悦
悩
悪
悲
悶
悸
悼
情
惑
惚
惜
惠
惣
惧
惨
惰
想
惹
愁
愉
意
愕
愚
愛
感
慄
慈
態
慌
慎
慕
慢
慣
慧
慨
慮
慰
慶
憂
憊
憎
憐
憑
憚
憤
憧
憩
憫
憬
憲
憶
憾
懇
應
懐
懲
懸
懺
戊
戌
戎
成
我
戒
或
戚
戦
戮
戯
戴
戶
戸
戻
房
所
扁
扇
扉
手
才
打
払
托
扮
扱
扶
批
承
技
抄
抉
把
抑
投
抗
折
抜
択
披
抱
抵
抹
押
抽
担
拉
拌
拍
拐
拒
拓
拗
拘
拙
招
拝
拠
拡
括
拭
拮
拳
拵
拶
拷
拾
持
指
按
挑
挙
挟
挨
挫
振
挺
挽
挿
捉
捌
捏
捕
捗
捜
捧
捨
捩
据
捲
捺
捻
掃
授
掌
排
掘
掛
掟
掠
採
探
接
控
推
措
掬
掲
掴
掻
揃
揄
揆
揉
描
提
揖
揚
換
握
揮
援
揶
揺
損
搬
搭
携
搾
摂
摘
摩
摯
摺
撃
撒
撞
撤
撥
撫
播
撮
撰
撲
撹
擁
操
擢
擦
擬
攣
攫
支
改
攻
放
政
故
敏
救
敗
教
敢
散
敦
敬
数
整
敵
敷
文
斉
斎
斐
斑
斗
料
斜
斡
斤
斥
斧
斬
断
斯
新
方
於
施
旅
旋
族
旗
旛
既
日
旦
旧
旨
早
旬
旭
旺
昂
昆
昇
昌
明
昏
易
昔
星
映
春
昧
昨
昭
是
昴
昼
時
晃
晋
晒
晦
晩
普
景
晰
晴
晶
智
暁
暇
暈
暉
暑
暖
暗
暢
暦
暫
暮
暴
曇
曖
曙
曜
曝
曰
曲
曳
更
書
曹
曼
曽
曾
替
最
會
月
有
朋
服
朔
朕
朗
望
朝
期
朦
朧
木
未
末
本
札
朱
朴
机
朽
杉
李
杏
材
村
杓
杖
杜
杞
束
条
来
杭
杯
東
杵
杷
松
板
枇
析
枕
林
枚
果
枝
枠
枡
枢
枯
架
枷
柄
柊
柏
某
柑
染
柔
柘
柚
柩
柱
柳
柴
柵
査
柿
栂
栃
栄
栓
栖
栗
栞
校
株
核
根
格
栽
桁
桂
桃
案
桐
桑
桔
桜
桝
桟
桧
桶
梁
梅
梓
梗
條
梟
梠
梢
梨
梯
械
梱
梵
梶
棄
棋
棍
棒
棘
棚
棟
森
棲
棺
椀
椅
椋
植
椎
椒
椛
検
椰
椿
楊
楓
楕
楚
楠
楢
業
楯
極
楷
楼
楽
概
榊
榎
榛
榮
榴
槃
槇
構
槌
槍
様
槙
槻
槽
樂
樋
樓
標
樟
模
権
横
樫
樹
樺
樽
橋
橘
橙
機
橿
檀
檎
檜
檬
檸
檻
櫃
櫓
櫛
櫻
欄
欅
欒
欠
次
欣
欧
欲
欺
欽
款
歌
歓
止
正
此
武
歩
歪
歯
歳
歴
死
殆
殉
殊
残
殖
殲
殴
段
殺
殻
殿
毀
毅
母
毎
毒
比
毘
毛
毬
毯
氏
民
気
氣
水
氷
永
氾
汁
求
汎
汐
汗
汚
汝
江
池
汰
汲
決
汽
沁
沃
沈
沌
沖
沙
没
沢
沫
河
沸
油
治
沼
沿
況
泄
泉
泊
泌
法
泡
波
泣
泥
注
泪
泰
泳
洋
洒
洗
洛
洞
津
洩
洪
洲
洸
活
派
流
浄
浅
浜
浦
浩
浪
浮
浴
海
浸
涅
消
涌
涎
涙
涛
涜
涯
液
涸
涼
淀
淋
淑
淘
淡
淫
深
淳
淵
混
淹
添
清
渇
済
渉
渋
渓
渕
渚
減
渠
渡
渥
渦
温
測
港
游
渾
湊
湖
湘
湧
湯
湾
湿
満
源
準
溜
溝
溢
溪
溶
溺
滅
滉
滋
滑
滝
滞
滲
滴
滾
漁
漂
漆
漉
漏
演
漕
漠
漢
漫
漬
漱
漲
漸
潔
潜
潟
潤
潮
潰
澁
澄
澤
澪
澱
激
濁
濃
濠
濡
濤
濫
濯
濱
濵
濾
瀑
瀕
瀞
瀧
瀨
瀬
灌
灘
灣
火
灬
灯
灰
灸
灼
災
炉
炊
炎
炒
炙
炬
炭
炸
点
為
烈
烏
烙
烹
焉
焔
焙
焚
無
焦
然
焼
煉
煌
煎
煙
煤
照
煩
煮
煽
熊
熟
熱
熾
燃
燈
燐
燕
燗
燥
燦
燭
燵
燻
爆
爛
爪
爬
爵
父
爺
爽
爾
片
版
牌
牙
牛
牝
牟
牡
牢
牧
物
牲
特
牽
犀
犠
犬
犯
状
狂
狐
狗
狙
狛
狡
狩
独
狭
狸
狼
猛
猟
猥
猩
猪
猫
献
猶
猿
獄
獅
獣
獲
獺
玄
率
玉
王
玖
玩
玲
珀
珂
珈
珊
珍
珠
班
現
球
理
琉
琢
琥
琲
琳
琴
琵
琶
瑚
瑛
瑞
瑠
璃
璧
環
璽
瓜
瓢
瓦
瓶
甑
甘
甚
甜
生
産
甥
甦
用
田
由
甲
申
男
町
画
界
畏
畑
畔
留
畜
畝
畠
略
番
異
畳
當
畷
畿
疇
疋
疎
疑
疫
疱
疲
疹
疼
疾
病
症
痍
痒
痔
痕
痘
痙
痛
痢
痩
痰
痴
痺
瘍
瘡
瘤
療
癇
癌
癒
癖
癪
発
登
發
白
百
的
皆
皇
皐
皓
皮
皺
皿
盃
盆
益
盗
盛
盟
監
盤
目
盲
直
相
盾
省
眉
看
県
眞
真
眠
眩
眺
眼
着
睡
督
睦
睨
瞑
瞞
瞬
瞭
瞰
瞳
瞼
矛
矜
矢
知
短
矯
石
砂
研
砕
砥
砦
砲
破
砺
硝
硫
硬
碁
碇
碌
碍
碑
碓
碗
碧
確
磁
磋
磐
磔
磨
磯
礁
礎
礒
礫
示
礼
社
祀
祇
祈
祉
祐
祓
祖
祝
神
祟
祠
祢
祥
票
祭
祷
禁
禄
禅
禊
禍
福
禰
禽
禿
秀
私
秋
科
秒
秘
租
秤
秦
秩
称
移
稀
程
税
稔
稚
稜
種
稲
稼
稽
稿
穀
穂
積
穏
穐
穢
穣
穫
穴
究
空
穿
突
窃
窄
窒
窓
窟
窩
窪
窮
窯
窺
竄
竈
立
站
竜
章
竣
童
竪
端
競
竹
竿
笏
笑
笘
笛
笠
符
第
笹
筆
筈
等
筋
筍
筏
筐
筑
筒
答
策
筥
箇
箋
箏
箒
箔
箕
算
管
箪
箱
箸
節
範
篇
築
篠
篤
篭
簀
簡
簾
簿
籍
籠
籤
米
籾
粉
粋
粒
粕
粗
粘
粛
粟
粥
粧
精
糀
糊
糖
糞
糠
糧
糸
系
糾
紀
約
紅
紆
紋
納
紐
純
紗
紘
紙
級
紛
素
紡
索
紫
紬
累
細
紳
紹
紺
終
組
絆
経
結
絞
絡
絢
給
絨
統
絲
絵
絶
絹
継
続
綜
維
綱
網
綴
綺
綻
綾
綿
緊
緋
総
緑
緒
線
締
編
緩
緯
練
緻
縁
縄
縋
縛
縞
縣
縦
縫
縮
總
績
繁
繊
繋
繍
織
繕
繚
繫
繭
繰
纏
缶
罒
罠
罪
置
罰
署
罵
罷
罹
羅
羊
美
羞
群
羨
義
羹
羽
翁
翌
習
翔
翠
翡
翳
翻
翼
耀
老
考
者
耆
而
耐
耕
耗
耳
耶
耽
聖
聘
聚
聞
聡
聲
聴
職
肇
肉
肋
肌
肖
肘
肛
肝
股
肢
肥
肩
肪
肯
育
肴
肺
胃
胆
背
胎
胞
胡
胱
胴
胸
能
脂
脅
脆
脇
脈
脊
脚
脛
脱
脳
脹
腎
腐
腑
腔
腕
腫
腰
腱
腸
腹
腺
腿
膀
膏
膚
膜
膝
膠
膣
膨
膳
膵
膿
臀
臆
臓
臣
臥
臨
自
臭
至
致
臼
與
興
舌
舎
舐
舗
舘
舜
舞
舟
航
舫
般
舵
舶
舷
船
艇
艦
良
色
艶
艸
芋
芒
芙
芝
芥
芦
芭
芯
花
芳
芸
芹
芻
芽
苅
苑
苔
苗
苛
若
苦
苫
英
苺
茂
茄
茅
茉
茎
茗
茜
茨
茶
茸
茹
草
荏
荒
荘
荷
荻
荼
莉
莫
莱
菅
菊
菌
菓
菖
菜
菩
華
菰
菱
菴
萄
萌
萎
萩
萬
萱
落
葉
著
葛
葡
董
葦
葬
葱
葵
葺
蒔
蒙
蒜
蒟
蒡
蒲
蒸
蒻
蒼
蓄
蓉
蓋
蓑
蓬
蓮
蓼
蔑
蔓
蔦
蔭
蔵
蔽
蕁
蕉
蕎
蕗
蕨
蕩
蕪
蕾
薄
薇
薔
薗
薙
薦
薩
薪
薫
薬
薮
薯
藁
藍
藏
藝
藤
藩
藪
藻
蘇
蘭
虎
虐
虚
虜
虞
號
虫
虹
蚊
蚕
蚤
蛆
蛇
蛉
蛋
蛍
蛙
蛛
蛤
蛭
蛮
蛸
蛾
蜂
蜃
蜘
蜜
蜻
蝉
蝋
蝕
蝗
蝦
蝶
蝿
融
螺
蟲
蟹
蟻
蠅
蠍
蠣
血
衆
行
術
街
衛
衝
衡
衣
表
衰
衷
衿
袈
袋
袖
被
袴
裁
裂
装
裏
裔
裕
補
裟
裳
裸
製
裾
褄
複
褌
褐
褒
褪
襖
襟
襲
襷
西
要
覆
覇
見
規
視
覗
覚
覧
親
観
角
解
触
言
訂
訃
計
訊
討
訓
託
記
訛
訝
訟
訣
訪
設
許
訳
訴
訶
診
証
詈
詐
詔
評
詛
詞
詠
詣
試
詩
詫
詭
詮
詰
話
該
詳
誅
誇
誉
誌
認
誓
誕
誘
語
誠
誤
説
読
誰
課
誹
調
談
請
諏
諒
論
諜
諦
諧
諫
諭
諮
諸
諾
謀
謁
謂
謄
謎
謗
謙
講
謝
謡
謳
謹
識
譚
譜
警
議
譲
護
讀
讃
讐
谷
豆
豊
豚
象
豪
豹
貌
貝
貞
負
財
貢
貧
貨
販
貪
貫
責
貯
貰
貴
貶
買
貸
費
貼
貿
賀
賂
賃
賄
資
賊
賑
賓
賛
賜
賞
賠
賢
賣
賤
賦
質
賭
購
賽
贄
贅
贈
贔
赤
赦
走
赴
起
超
越
趙
趣
足
趾
跋
距
跡
跨
路
跳
践
踊
踏
踪
踵
蹂
蹄
蹊
蹟
蹴
躁
躇
躊
躍
躓
躙
身
躾
車
軋
軌
軍
軒
軟
転
軸
軽
較
載
輌
輔
輝
輩
輪
輸
輿
轄
轍
轟
轢
辛
辞
辟
辣
辰
辱
農
辺
辻
込
辿
迂
迄
迅
迎
近
返
这
迦
迫
迭
述
迷
追
退
送
逃
逅
逆
透
逐
逓
途
逗
這
通
逝
逞
速
造
逢
連
逮
週
進
逸
逼
遂
遅
遇
遊
運
遍
過
道
達
違
遙
遜
遠
遡
遣
遥
適
遭
遮
遵
遷
選
遺
遼
遽
避
邁
邂
還
邉
邊
邑
那
邦
邪
邸
郁
郊
郎
郡
部
郭
郵
郷
都
鄙
酉
酊
酌
配
酎
酒
酔
酛
酢
酩
酪
酬
酵
酷
酸
醂
醇
醍
醐
醒
醜
醤
醬
醸
采
釈
里
重
野
量
金
釘
釜
針
釣
釧
鈍
鈴
鉄
鉛
鉢
鉱
鉾
銀
銃
銅
銘
銚
銭
鋏
鋭
鋲
鋳
鋸
鋼
錆
錠
錦
錫
錬
錮
錯
録
鍋
鍛
鍬
鍮
鍵
鍼
鍾
鎌
鎖
鎚
鎧
鎮
鏑
鏡
鐘
鐵
鑑
鑽
長
門
閃
閉
開
閑
間
閖
関
閣
閤
閥
閲
閻
闇
闊
闘
阜
阪
防
阻
阿
陀
附
降
限
陛
院
陣
除
陥
陪
陰
陳
陵
陶
陸
険
陽
隅
隆
隈
隊
階
随
隔
隕
隙
際
障
隠
隣
隧
隷
隻
隼
雀
雁
雄
雅
集
雇
雉
雌
雑
雛
離
難
雨
雪
雫
雰
雲
零
雷
雹
電
需
震
霊
霜
霞
霧
霰
露
靄
青
靖
静
非
靡
面
革
靭
靱
靴
鞄
鞆
鞍
鞘
鞠
鞭
韋
韓
韮
音
韻
響
頁
頂
頃
項
順
須
預
頑
頒
頓
領
頚
頬
頭
頰
頷
頸
頻
頼
顆
題
額
顎
顔
顕
願
顛
類
顧
風
颯
飛
食
飢
飩
飯
飲
飴
飼
飽
飾
餃
餅
餉
養
餌
餐
餓
餡
館
饂
饅
饒
饗
首
香
馬
馳
馴
駄
駅
駆
駐
駒
駕
駿
騎
騒
験
騙
騨
騰
驕
驚
骨
骸
髄
高
髙
髪
髭
鬱
鬼
魁
魂
魅
魍
魎
魔
魚
魯
鮎
鮑
鮒
鮨
鮪
鮫
鮭
鮮
鯉
鯖
鯛
鯨
鯱
鯵
鰆
鰐
鰤
鰯
鰹
鰻
鱈
鱒
鱗
鱧
鱸
鳥
鳩
鳳
鳴
鳶
鴉
鴎
鴨
鴻
鵜
鵠
鵬
鶏
鶯
鶴
鷄
鷲
鷹
鷺
鸞
鹸
鹿
麒
麓
麗
麟
麦
麩
麵
麹
麺
麻
麿
黄
黎
黑
黒
黙
鼎
鼓
鼠
鼻
齊
齋
齢
齧
龍
ꇴ
ꈊ
ꈍ
ꉂ
ꐦ
꒦
꒪
꒫
꒰
꒱
꒳
ꔛ
ꕤ
Ꙭ
꙳
꜀
꜄
꜆
ꠥ
고
니
다
리
소
아
야
오
요
이
일
지
하
한
해
호
흐
﨑
︎
️
￼
𐤔
𓂂
𓂃
𓇋
𓈒
𓌉
𓏸
𓐍
𖠚
𖤐
𖥦
𖥧
𖦹
🀄
🃏
🅰
🅱
🅿
🆓
🆕
🆖
🆗
🆘
🆙
🆚
🇦
🇧
🇨
🇩
🇪
🇫
🇬
🇭
🇮
🇯
🇰
🇱
🇲
🇳
🇴
🇵
🇶
🇷
🇸
🇹
🇺
🇻
🇼
🇽
🇾
🇿
🌀
🌁
🌂
🌃
🌄
🌅
🌆
🌇
🌈
🌉
🌊
🌋
🌌
🌍
🌎
🌏
🌐
🌒
🌓
🌔
🌕
🌖
🌙
🌚
🌛
🌜
🌝
🌞
🌟
🌠
🌡
🌤
🌥
🌦
🌧
🌨
🌩
🌪
🌫
🌬
🌭
🌮
🌯
🌰
🌱
🌲
🌳
🌴
🌵
🌶
🌷
🌸
🌹
🌺
🌻
🌼
🌽
🌾
🌿
🍀
🍁
🍂
🍃
🍄
🍅
🍆
🍇
🍈
🍉
🍊
🍋
🍌
🍍
🍎
🍏
🍐
🍑
🍒
🍓
🍔
🍕
🍖
🍗
🍘
🍙
🍚
🍛
🍜
🍝
🍞
🍟
🍠
🍡
🍢
🍣
🍤
🍥
🍦
🍧
🍨
🍩
🍪
🍫
🍬
🍭
🍮
🍯
🍰
🍱
🍲
🍳
🍴
🍵
🍶
🍷
🍸
🍹
🍺
🍻
🍼
🍽
🍾
🍿
🎀
🎁
🎂
🎃
🎄
🎅
🎆
🎇
🎈
🎉
🎊
🎋
🎌
🎍
🎎
🎏
🎐
🎑
🎒
🎓
🎖
🎙
🎞
🎟
🎠
🎡
🎢
🎣
🎤
🎥
🎦
🎧
🎨
🎩
🎪
🎫
🎬
🎭
🎮
🎯
🎰
🎱
🎲
🎳
🎴
🎵
🎶
🎷
🎸
🎹
🎺
🎻
🎼
🎽
🎾
🎿
🏀
🏁
🏂
🏃
🏄
🏅
🏆
🏇
🏈
🏉
🏊
🏋
🏌
🏍
🏎
🏏
🏐
🏒
🏓
🏔
🏕
🏖
🏗
🏘
🏙
🏚
🏝
🏞
🏟
🏠
🏡
🏢
🏣
🏥
🏦
🏨
🏩
🏪
🏫
🏬
🏭
🏮
🏯
🏰
🏳
🏴
🏵
🏸
🏹
🏺
🏻
🏼
🏽
🏾
🏿
🐀
🐁
🐂
🐃
🐄
🐅
🐆
🐇
🐈
🐉
🐊
🐋
🐌
🐍
🐎
🐏
🐐
🐑
🐒
🐓
🐔
🐕
🐖
🐗
🐘
🐙
🐚
🐛
🐜
🐝
🐞
🐟
🐠
🐡
🐢
🐣
🐤
🐥
🐦
🐧
🐨
🐩
🐪
🐫
🐬
🐭
🐮
🐯
🐰
🐱
🐲
🐳
🐴
🐵
🐶
🐷
🐸
🐹
🐺
🐻
🐼
🐽
🐾
🐿
👀
👁
👂
👃
👄
👅
👆
👇
👈
👉
👊
👋
👌
👍
👎
👏
👐
👑
👒
👓
👔
👕
👖
👗
👘
👙
👚
👛
👜
👞
👟
👠
👢
👣
👤
👦
👧
👨
👩
👪
👫
👬
👭
👮
👯
👰
👱
👲
👳
👴
👵
👶
👷
👸
👹
👺
👻
👼
👽
👾
👿
💀
💁
💃
💄
💅
💆
💇
💈
💉
💊
💋
💌
💍
💎
💏
💐
💑
💒
💓
💔
💕
💖
💗
💘
💙
💚
💛
💜
💝
💞
💟
💠
💡
💢
💣
💤
💥
💦
💧
💨
💩
💪
💫
💬
💭
💮
💯
💰
💳
💴
💵
💸
💹
💺
💻
💼
💿
📀
📄
📅
📆
📈
📉
📌
📍
📑
📕
📖
📗
📘
📚
📛
📝
📞
📡
📢
📣
📦
📧
📨
📩
📮
📯
📰
📱
📲
📶
📷
📸
📹
📺
📻
📽
📿
🔁
🔅
🔆
🔊
🔋
🔌
🔍
🔎
🔑
🔔
🔗
🔚
🔛
🔜
🔞
🔥
🔦
🔧
🔨
🔩
🔪
🔫
🔮
🔰
🔴
🔵
🔶
🔷
🔸
🔹
🔺
🔻
🔽
🕊
🕐
🕒
🕛
🕯
🕰
🕳
🕵
🕶
🕷
🕸
🕹
🕺
🖊
🖋
🖌
🖐
🖕
🖖
🖤
🖥
🖼
🗑
🗓
🗝
🗞
🗡
🗣
🗨
🗯
🗳
🗺
🗻
🗼
🗽
🗾
🗿
😀
😁
😂
😃
😄
😅
😆
😇
😈
😉
😊
😋
😌
😍
😎
😏
😐
😑
😒
😓
😔
😕
😖
😗
😘
😙
😚
😛
😜
😝
😞
😟
😠
😡
😢
😣
😤
😥
😦
😧
😨
😩
😪
😫
😬
😭
😮
😯
😰
😱
😲
😳
😴
😵
😶
😷
😸
😹
😺
😻
😼
😽
😾
😿
🙀
🙁
🙂
🙃
🙄
🙅
🙆
🙇
🙈
🙉
🙊
🙋
🙌
🙍
🙎
🙏
🚀
🚁
🚂
🚃
🚄
🚅
🚆
🚇
🚈
🚉
🚊
🚋
🚌
🚍
🚎
🚏
🚐
🚑
🚒
🚓
🚔
🚕
🚖
🚗
🚘
🚙
🚚
🚛
🚜
🚝
🚞
🚢
🚣
🚤
🚥
🚧
🚨
🚩
🚪
🚫
🚬
🚭
🚮
🚰
🚲
🚴
🚵
🚶
🚹
🚺
🚻
🚽
🚾
🚿
🛀
🛁
🛌
🛍
🛎
🛏
🛐
🛒
🛞
🛠
🛣
🛤
🛥
🛩
🛫
🛬
🛳
🛵
🛷
🛸
🛹
🛻
🟠
🟡
🟢
🟣
🟥
🟦
🟧
🟨
🟩
🟰
🤌
🤍
🤎
🤏
🤐
🤑
🤒
🤓
🤔
🤕
🤖
🤗
🤘
🤙
🤚
🤛
🤜
🤝
🤞
🤟
🤠
🤡
🤢
🤣
🤤
🤥
🤦
🤧
🤨
🤩
🤪
🤫
🤬
🤭
🤮
🤯
🤱
🤲
🤳
🤴
🤵
🤶
🤷
🤸
🤺
🤼
🤿
🥀
🥁
🥂
🥃
🥄
🥅
🥇
🥈
🥉
🥊
🥋
🥌
🥎
🥐
🥑
🥒
🥓
🥔
🥕
🥖
🥗
🥘
🥙
🥚
🥛
🥜
🥝
🥞
🥟
🥡
🥢
🥣
🥤
🥥
🥦
🥧
🥩
🥪
🥫
🥬
🥭
🥮
🥯
🥰
🥱
🥲
🥳
🥴
🥵
🥶
🥷
🥸
🥹
🥺
🥾
🦀
🦁
🦂
🦃
🦄
🦅
🦆
🦇
🦈
🦉
🦊
🦋
🦌
🦍
🦎
🦏
🦐
🦑
🦒
🦓
🦔
🦕
🦖
🦗
🦘
🦙
🦚
🦛
🦜
🦝
🦞
🦟
🦠
🦢
🦣
🦥
🦦
🦩
🦪
🦫
🦬
🦭
🦮
🦰
🦱
🦲
🦳
🦴
🦵
🦶
🦷
🦸
🦹
🦺
🦻
🦾
🧀
🧁
🧂
🧄
🧅
🧇
🧈
🧊
🧋
🧎
🧏
🧐
🧑
🧒
🧓
🧔
🧖
🧘
🧙
🧚
🧛
🧜
🧞
🧟
🧠
🧡
🧢
🧣
🧤
🧥
🧦
🧧
🧨
🧩
🧪
🧬
🧱
🧳
🧴
🧵
🧶
🧸
🧹
🧺
🧼
🧽
🩰
🩲
🩳
🩵
🩷
🩸
🩹
🩺
🪃
🪄
🪐
🪑
🪓
🪖
🪘
🪙
🪜
🪞
🪟
🪡
🪣
🪥
🪦
🪨
🪩
🪫
🪰
🪳
🪴
🪵
🪶
🪷
🪸
🫀
🫂
🫃
🫅
🫐
🫑
🫒
🫓
🫕
🫖
🫘
🫠
🫡
🫢
🫣
🫤
🫥
🫦
🫧
🫨
🫰
🫱
🫲
🫴
🫵
🫶
󠁢
󠁥
󠁧
󠁮
󠁿
󠄀
##!
##"
###
##$
##%
##&
##'
##(
##)
##*
##+
##,
##-
##.
##/
##0
##1
##2
##3
##4
##5
##6
##7
##8
##9
##:
##;
##<
##=
##>
##?
##@
##A
##B
##C
##D
##E
##F
##G
##H
##I
##J
##K
##L
##M
##N
##O
##P
##Q
##R
##S
##T
##U
##V
##W
##X
##Y
##Z
##[
##\
##]
##^
##_
##`
##a
##b
##c
##d
##e
##f
##g
##h
##i
##j
##k
##l
##m
##n
##o
##p
##q
##r
##s
##t
##u
##v
##w
##x
##y
##z
##{
##|
##}
##~
##¢
##¥
##¦
##§
##©
##«
##¬
##®
##°
##¶
##·
##»
##¿
##Á
##É
##Ì
##Ò
##Ó
##×
##Ø
##Ü
##à
##á
##ä
##è
##é
##í
##ò
##ó
##ö
##ü
##ŋ
##Ō
##ō
##ŏ
##ŧ
##ū
##ơ
##ƪ
##ɛ
##ɜ
##ɞ
##ɦ
##ʅ
##ʔ
##ʕ
##ʖ
##ʘ
##ʚ
##ʟ
##ʬ
##˂
##˃
##ˆ
##ˇ
##ˉ
##ˊ
##ˋ
##ˍ
##ˎ
##˖
##˗
##ˬ
##˵
##˶
##̀
##́
##̃
##̄
##̅
##̆
##̇
##̈
##̊
##̑
##̒
##̖
##̣
##̤
##̥
##̧
##̩
##̫
##̮
##̯
##̱
##̳
##̴
##̵
##̶
##̷
##͈
##͙
##͛
##͜
##͞
##͟
##͡
##Δ
##Θ
##Σ
##Φ
##Ψ
##Ω
##α
##β
##γ
##ε
##θ
##ι
##μ
##ν
##ξ
##ο
##π
##ρ
##σ
##φ
##ψ
##ω
##Д
##З
##Ф
##Я
##а
##д
##з
##о
##т
##ё
##ԅ
##՞
##֊
##س
##ع
##ل
##م
##ه
##و
##ى
##ي
##٥
##٩
##ٹ
##ڡ
##۶
##߹
##ࡇ
##ु
##ू
##॑
##ਊ
##੭
##୧
##୨
##இ
##౪
##ಠ
##ദ
##ി
##്
##ෆ
##ก
##ค
##ฅ
##ง
##ด
##ท
##น
##บ
##ม
##ย
##ร
##ล
##ว
##อ
##ั
##า
##ิ
##ี
##เ
##่
##้
##ํ
##๑
##๓
##๛
##໒
##༎
##༥
##ཀ
##ཫ
##ི
##ོ
##ྀ
##࿉
##ლ
##ღ
##ჱ
##ᄀ
##ᄂ
##ᄃ
##ᄅ
##ᄆ
##ᄇ
##ᄉ
##ᄋ
##ᄌ
##ᄍ
##ᄎ
##ᄏ
##ᄑ
##ᄒ
##ᅀ
##ᅇ
##ᅌ
##ᅙ
##ᅠ
##ᅡ
##ᅢ
##ᅣ
##ᅥ
##ᅧ
##ᅮ
##ᅲ
##ᅳ
##ᐕ
##ᐙ
##ᐛ
##ᐝ
##ᐟ
##ᐠ
##ᐡ
##ᐢ
##ᔦ
##ᔨ
##ᕕ
##ᕗ
##ᕙ
##ᕤ
##ᕦ
##ᗜ
##ᗨ
##ᯅ
##ᴖ
##ᴗ
##ᴥ
##᷄
##᷅
##᷆
##᷇
##ὢ
##ᾥ
##​
##‍
##‐
##–
##—
##―
##‘
##’
##“
##”
##†
##•
##‧
##‰
##′
##‵
##‸
##‹
##›
##※
##‿
##⁍
##⁎
##⁝
##⁠
##⁡
##€
##⃘
##←
##↑
##→
##↓
##↔
##↗
##↘
##↝
##⇄
##⇆
##⇐
##⇒
##⇔
##⇨
##⇩
##⇽
##∀
##∂
##∇
##∈
##∋
##∑
##−
##∗
##√
##∞
##∠
##∥
##∧
##∩
##∪
##∫
##∵
##≒
##≖
##≠
##≡
##≦
##≧
##≪
##≫
##⊂
##⊃
##⊙
##⊿
##⋅
##⋆
##⋯
##⌄
##⌑
##⌒
##⌓
##⌚
##⌣
##⌯
##⏩
##⏬
##⏰
##⏳
##⑅
##⑉
##─
##━
##│
##┃
##┈
##┌
##┏
##┐
##┓
##└
##┗
##┘
##┛
##┻
##╥
##╭
##╮
##╯
##╰
##╹
##█
##▓
##■
##□
##▪
##▫
##▭
##▲
##△
##▶
##▷
##►
##▼
##▽
##▿
##◀
##◁
##◆
##◇
##◉
##◊
##○
##◌
##◍
##◎
##●
##◒
##◔
##◕
##◜
##◝
##◞
##◟
##◠
##◡
##◢
##◤
##◥
##◦
##◯
##◼
##◾
##☀
##☁
##☂
##☃
##☄
##★
##☆
##☉
##☎
##☑
##☓
##☔
##☕
##☗
##☘
##☚
##☜
##☝
##☞
##☟
##☠
##☪
##☮
##☹
##☺
##☻
##♀
##♂
##♠
##♡
##♣
##♥
##♦
##♨
##♩
##♪
##♫
##♬
##♭
##♯
##♻
##♾
##♿
##⚐
##⚑
##⚒
##⚓
##⚔
##⚙
##⚜
##⚠
##⚡
##⚪
##⚫
##⚰
##⚽
##⚾
##⛄
##⛅
##⛈
##⛑
##⛓
##⛩
##⛪
##⛰
##⛱
##⛲
##⛳
##⛴
##⛵
##⛷
##⛸
##⛹
##⛺
##⛽
##✂
##✅
##✈
##✉
##✊
##✋
##✌
##✍
##✏
##✒
##✔
##✕
##✖
##✝
##✧
##✨
##✩
##✪
##✰
##✳
##✴
##✿
##❀
##❁
##❄
##❅
##❇
##❋
##❌
##❎
##❓
##❔
##❕
##❗
##❛
##❢
##❣
##❤
##❥
##❶
##❷
##❸
##❹
##➕
##➖
##➡
##➰
##➿
##⟵
##⠀
##⤴
##⤵
##⦅
##⦆
##⬅
##⬆
##⬇
##⬛
##⬜
##⭐
##⭕
##⸒
##⸜
##⸝
##、
##。
##〃
##々
##〆
##〇
##〈
##〉
##《
##》
##「
##」
##『
##』
##【
##】
##〒
##〔
##〕
##〖
##〗
##〘
##〙
##〜
##〝
##〟
##〠
##〰
##〽
##ぁ
##あ
##ぃ
##い
##ぅ
##う
##ぇ
##え
##ぉ
##お
##か
##が
##き
##ぎ
##く
##ぐ
##け
##げ
##こ
##ご
##さ
##ざ
##し
##じ
##す
##ず
##せ
##ぜ
##そ
##ぞ
##た
##だ
##ち
##ぢ
##っ
##つ
##づ
##て
##で
##と
##ど
##な
##に
##ぬ
##ね
##の
##は
##ば
##ぱ
##ひ
##び
##ぴ
##ふ
##ぶ
##ぷ
##へ
##べ
##ぺ
##ほ
##ぼ
##ぽ
##ま
##み
##む
##め
##も
##ゃ
##や
##ゅ
##ゆ
##ょ
##よ
##ら
##り
##る
##れ
##ろ
##ゎ
##わ
##ゐ
##ゑ
##を
##ん
##ゔ
##゙
##゚
##ゝ
##ゞ
##ァ
##ア
##ィ
##イ
##ゥ
##ウ
##ェ
##エ
##ォ
##オ
##カ
##ガ
##キ
##ギ
##ク
##グ
##ケ
##ゲ
##コ
##ゴ
##サ
##ザ
##シ
##ジ
##ス
##ズ
##セ
##ゼ
##ソ
##ゾ
##タ
##ダ
##チ
##ヂ
##ッ
##ツ
##ヅ
##テ
##デ
##ト
##ド
##ナ
##ニ
##ヌ
##ネ
##ノ
##ハ
##バ
##パ
##ヒ
##ビ
##ピ
##フ
##ブ
##プ
##ヘ
##ベ
##ペ
##ホ
##ボ
##ポ
##マ
##ミ
##ム
##メ
##モ
##ャ
##ヤ
##ュ
##ユ
##ョ
##ヨ
##ラ
##リ
##ル
##レ
##ロ
##ヮ
##ワ
##ヰ
##ヱ
##ヲ
##ン
##ヴ
##ヵ
##ヶ
##・
##ー
##ヽ
##ヾ
##ㄘ
##一
##丁
##七
##万
##丈
##三
##上
##下
##不
##与
##丑
##且
##世
##丘
##丞
##両
##並
##个
##中
##串
##丸
##丹
##主
##丼
##丿
##乃
##久
##么
##之
##乏
##乗
##乙
##九
##乞
##也
##乱
##乳
##乾
##亀
##了
##予
##争
##事
##二
##云
##互
##五
##井
##亜
##亞
##亡
##交
##亨
##享
##京
##亭
##亮
##人
##什
##仁
##仄
##仇
##今
##介
##仏
##仔
##仕
##他
##付
##仙
##代
##令
##以
##仮
##仰
##仲
##件
##任
##企
##伊
##伍
##伎
##伏
##伐
##休
##会
##伝
##伯
##伴
##伸
##似
##伽
##但
##位
##低
##住
##佐
##佑
##体
##何
##余
##佛
##作
##你
##佳
##併
##使
##來
##例
##侍
##侑
##侘
##供
##依
##侠
##価
##侮
##侯
##侵
##侶
##便
##係
##促
##俊
##俗
##保
##信
##俣
##修
##俳
##俵
##俸
##俺
##倅
##倉
##個
##倍
##倒
##倖
##候
##借
##倣
##値
##倦
##倫
##倭
##倶
##倹
##偉
##偏
##做
##停
##健
##側
##偵
##偶
##偽
##傍
##傑
##傘
##備
##催
##傭
##傳
##債
##傷
##傾
##働
##像
##僕
##僚
##僧
##儀
##億
##儒
##儘
##償
##儡
##優
##儲
##元
##兄
##充
##兆
##先
##光
##克
##免
##兎
##児
##党
##兜
##入
##全
##八
##公
##六
##共
##兵
##其
##具
##典
##兼
##内
##円
##冊
##再
##冑
##冒
##写
##冠
##冤
##冥
##冨
##冬
##冴
##冶
##冷
##凄
##准
##凋
##凌
##凍
##凛
##凜
##凝
##几
##凡
##処
##凧
##凪
##凰
##凱
##凶
##凸
##凹
##出
##函
##刀
##刃
##分
##切
##刈
##刊
##刑
##列
##初
##判
##別
##利
##刮
##到
##制
##刷
##券
##刹
##刺
##刻
##剃
##則
##削
##剋
##前
##剖
##剛
##剝
##剣
##剤
##剥
##副
##剰
##割
##創
##劇
##力
##功
##加
##劣
##助
##努
##劫
##励
##労
##効
##劾
##勃
##勅
##勇
##勉
##勒
##動
##勘
##務
##勝
##募
##勢
##勤
##勧
##勲
##勾
##勿
##匂
##包
##化
##北
##匙
##匠
##匡
##匹
##区
##医
##匿
##十
##千
##升
##午
##半
##卑
##卒
##卓
##協
##南
##単
##博
##卜
##占
##卯
##印
##危
##即
##却
##卵
##卸
##卿
##厄
##厘
##厚
##原
##厨
##厩
##厭
##厳
##厶
##去
##参
##又
##叉
##及
##友
##双
##反
##収
##叔
##取
##受
##叙
##叡
##叢
##口
##古
##句
##叩
##只
##叫
##召
##可
##台
##史
##右
##叶
##号
##司
##吃
##各
##合
##吉
##吊
##同
##名
##后
##吏
##吐
##向
##君
##吟
##吠
##否
##吧
##含
##吸
##吹
##吽
##吾
##呂
##呆
##呈
##呉
##告
##呑
##呟
##周
##呪
##味
##呵
##呼
##命
##咀
##咄
##咋
##和
##咎
##咖
##咤
##咥
##咫
##咬
##咲
##咳
##咽
##哀
##品
##哉
##員
##哨
##哭
##哲
##哺
##唄
##唆
##唇
##唐
##唯
##唱
##唸
##唾
##啄
##商
##啊
##問
##啓
##善
##喉
##喋
##喘
##喚
##喜
##喝
##喧
##喩
##喪
##喫
##喬
##喰
##喱
##営
##嗜
##嗟
##嗣
##嘆
##嘉
##嘗
##嘘
##嘩
##嘱
##嘲
##噌
##噛
##器
##噴
##噺
##嚇
##嚢
##嚥
##嚼
##囃
##囚
##四
##回
##因
##団
##囧
##困
##囲
##図
##固
##国
##圃
##國
##圏
##園
##圓
##團
##土
##圧
##在
##圭
##地
##址
##坂
##均
##坊
##坐
##坑
##坦
##坪
##垂
##型
##垢
##垣
##埃
##埋
##城
##埜
##域
##埴
##執
##培
##基
##埼
##堀
##堂
##堅
##堕
##堤
##堪
##堰
##報
##場
##堵
##堺
##塀
##塁
##塊
##塑
##塔
##塗
##塙
##塚
##塞
##塡
##塩
##填
##塵
##塾
##境
##墓
##増
##墜
##墟
##墨
##墳
##墾
##壁
##壇
##壊
##壌
##士
##壮
##声
##壱
##売
##壷
##壺
##壽
##変
##夏
##夕
##外
##多
##夜
##夢
##大
##天
##太
##夫
##央
##失
##夷
##奇
##奈
##奉
##奎
##奏
##契
##奔
##套
##奢
##奥
##奧
##奨
##奪
##奮
##女
##奴
##好
##如
##妃
##妄
##妊
##妓
##妖
##妙
##妨
##妬
##妹
##妻
##姉
##始
##姐
##姑
##姓
##委
##姜
##姥
##姦
##姨
##姪
##姫
##姻
##姿
##威
##娑
##娘
##娠
##娩
##娯
##婆
##婚
##婦
##婿
##媒
##媚
##媛
##嫁
##嫉
##嫌
##嫡
##嬉
##嬌
##嬢
##子
##孔
##孕
##字
##存
##孝
##孟
##季
##孤
##学
##孫
##學
##宅
##宇
##守
##安
##完
##宍
##宏
##宕
##宗
##官
##宙
##定
##宛
##宜
##宝
##実
##客
##宣
##室
##宮
##宰
##害
##宴
##宵
##家
##容
##宿
##寂
##寄
##寅
##密
##富
##寒
##寛
##寝
##察
##寡
##實
##寧
##審
##寮
##寶
##寸
##寺
##対
##寿
##封
##専
##射
##将
##尉
##尊
##尋
##導
##小
##少
##尖
##尚
##尤
##就
##尺
##尻
##尼
##尽
##尾
##尿
##局
##屁
##居
##屈
##届
##屋
##屍
##屏
##屑
##屓
##展
##属
##層
##履
##屯
##山
##岐
##岡
##岩
##岬
##岳
##岸
##峙
##峠
##峡
##峨
##峯
##峰
##島
##峻
##崇
##崎
##崖
##崩
##嵌
##嵐
##嵩
##嵯
##嶋
##嶺
##嶽
##巌
##川
##州
##巡
##巣
##工
##左
##巧
##巨
##巫
##差
##己
##已
##巳
##巴
##巻
##巾
##市
##布
##帆
##希
##帖
##帝
##帥
##師
##席
##帯
##帰
##帳
##常
##帽
##幅
##幌
##幕
##幟
##幡
##幣
##干
##平
##年
##幸
##幹
##幻
##幼
##幽
##幾
##庁
##広
##庄
##庇
##床
##序
##底
##店
##府
##度
##座
##庫
##庭
##庵
##庶
##康
##庸
##廃
##廉
##廊
##廟
##廣
##延
##廷
##建
##廻
##弁
##弄
##弊
##式
##弐
##弓
##弔
##引
##弘
##弛
##弟
##弥
##弦
##弧
##弱
##張
##強
##弾
##彅
##彌
##当
##彙
##彡
##形
##彦
##彩
##彫
##彰
##影
##役
##彼
##彿
##往
##征
##径
##待
##很
##徊
##律
##後
##徐
##徒
##従
##得
##御
##徨
##復
##循
##微
##徳
##徴
##徹
##心
##必
##忌
##忍
##志
##忘
##忙
##応
##忠
##快
##念
##忽
##怒
##怖
##思
##怠
##急
##性
##怨
##怪
##怯
##恋
##恍
##恐
##恒
##恣
##恥
##恨
##恩
##恭
##息
##恵
##悉
##悔
##悟
##悠
##患
##悦
##悩
##悪
##悲
##悶
##悸
##悼
##情
##惑
##惚
##惜
##惠
##惣
##惧
##惨
##惰
##想
##愁
##意
##愕
##愚
##愛
##感
##慄
##慈
##態
##慌
##慎
##慕
##慢
##慣
##慧
##慨
##慮
##慰
##慶
##憂
##憊
##憎
##憐
##憑
##憚
##憤
##憩
##憫
##憬
##憲
##憶
##憾
##懇
##應
##懐
##懲
##懸
##戌
##成
##我
##戒
##戚
##戦
##戮
##戯
##戴
##戸
##戻
##房
##所
##扇
##扉
##手
##才
##打
##払
##托
##扱
##扶
##承
##技
##抄
##把
##抑
##投
##抗
##折
##抜
##択
##披
##抱
##抵
##抹
##押
##抽
##担
##拉
##拌
##拍
##拐
##拒
##拓
##拗
##拙
##招
##拝
##拠
##拡
##括
##拭
##拳
##拵
##拶
##拾
##持
##指
##挙
##挟
##挫
##振
##挺
##挽
##挿
##捉
##捌
##捏
##捕
##捗
##捜
##捨
##据
##捲
##捺
##捻
##掃
##授
##掌
##排
##掘
##掛
##掟
##掠
##採
##探
##接
##控
##推
##措
##掬
##掲
##掴
##掻
##揃
##揄
##揆
##揉
##描
##提
##揖
##揚
##換
##握
##揮
##援
##揺
##損
##搬
##搭
##携
##搾
##摂
##摘
##摩
##摯
##摺
##撃
##撒
##撞
##撤
##撥
##撫
##播
##撮
##撰
##撲
##擁
##操
##擢
##擦
##擬
##攣
##攫
##支
##改
##攻
##放
##政
##故
##敏
##救
##敗
##教
##敢
##散
##敦
##敬
##数
##整
##敵
##敷
##文
##斉
##斎
##斐
##斑
##斗
##料
##斜
##斥
##斧
##斬
##断
##斯
##新
##方
##於
##施
##旅
##旋
##族
##旗
##旛
##既
##日
##旦
##旧
##旨
##早
##旬
##旭
##昂
##昆
##昇
##昌
##明
##昏
##易
##昔
##星
##映
##春
##昧
##昨
##昭
##是
##昼
##時
##晃
##晋
##晒
##晦
##晩
##景
##晰
##晴
##晶
##智
##暁
##暇
##暈
##暉
##暑
##暖
##暗
##暢
##暦
##暮
##暴
##曇
##曙
##曜
##曝
##曰
##曲
##曳
##更
##書
##曹
##曼
##曽
##曾
##替
##最
##會
##月
##有
##朋
##服
##朔
##朕
##朗
##望
##朝
##期
##朧
##木
##未
##末
##本
##札
##朱
##朴
##机
##朽
##杉
##李
##杏
##材
##村
##杓
##杖
##杜
##束
##条
##来
##杭
##杯
##東
##杵
##杷
##松
##板
##枇
##析
##枕
##林
##枚
##果
##枝
##枠
##枡
##枢
##枯
##架
##枷
##柄
##柏
##某
##柑
##染
##柔
##柚
##柩
##柱
##柳
##柴
##柵
##査
##柿
##栃
##栄
##栓
##栖
##栗
##校
##株
##核
##根
##格
##栽
##桁
##桂
##桃
##案
##桐
##桑
##桜
##桝
##桟
##桧
##桶
##梁
##梅
##梓
##梗
##條
##梟
##梠
##梢
##梨
##梯
##械
##梱
##梶
##棄
##棋
##棍
##棒
##棘
##棚
##棟
##森
##棲
##棺
##椀
##椅
##椋
##植
##椎
##椒
##検
##椰
##椿
##楊
##楓
##楚
##楠
##楢
##業
##楯
##極
##楷
##楼
##楽
##概
##榎
##榮
##榴
##槃
##槇
##構
##槌
##槍
##様
##槙
##槻
##槽
##樂
##樋
##樓
##標
##模
##権
##横
##樫
##樹
##樺
##樽
##橋
##橘
##橙
##機
##橿
##檀
##檎
##檜
##檬
##檻
##櫃
##櫓
##櫛
##櫻
##欄
##欅
##欒
##欠
##次
##欧
##欲
##欺
##欽
##款
##歌
##歓
##止
##正
##此
##武
##歩
##歪
##歯
##歳
##歴
##死
##殆
##殉
##殊
##残
##殖
##殴
##段
##殺
##殻
##殿
##毀
##毅
##母
##毎
##毒
##比
##毘
##毛
##毬
##毯
##氏
##民
##気
##氣
##水
##氷
##永
##汁
##求
##汎
##汐
##汗
##汚
##江
##池
##汰
##汲
##決
##汽
##沁
##沃
##沈
##沌
##沖
##沙
##没
##沢
##沫
##河
##沸
##油
##治
##沼
##沿
##況
##泄
##泉
##泊
##泌
##法
##泡
##波
##泣
##泥
##注
##泪
##泰
##泳
##洋
##洒
##洗
##洛
##洞
##津
##洩
##洪
##洲
##洸
##活
##派
##流
##浄
##浅
##浜
##浦
##浩
##浪
##浮
##浴
##海
##浸
##涅
##消
##涌
##涎
##涙
##涛
##涜
##涯
##液
##涸
##涼
##淀
##淋
##淑
##淡
##淫
##深
##淳
##淵
##混
##添
##清
##渇
##済
##渉
##渋
##渓
##渕
##渚
##減
##渠
##渡
##渥
##渦
##温
##測
##港
##游
##渾
##湊
##湖
##湘
##湧
##湯
##湾
##湿
##満
##源
##準
##溜
##溝
##溢
##溪
##溶
##溺
##滅
##滉
##滋
##滑
##滝
##滞
##滴
##滾
##漁
##漂
##漆
##漉
##漏
##演
##漕
##漠
##漢
##漫
##漬
##漲
##漸
##潔
##潜
##潟
##潤
##潮
##潰
##澄
##澤
##澱
##激
##濁
##濃
##濠
##濡
##濤
##濫
##濯
##濱
##瀑
##瀞
##瀧
##瀨
##瀬
##灌
##灘
##灣
##火
##灯
##灰
##灸
##灼
##災
##炉
##炊
##炎
##炒
##炙
##炭
##炸
##点
##為
##烈
##烏
##烙
##烹
##焉
##焔
##焙
##焚
##無
##焦
##然
##焼
##煉
##煌
##煎
##煙
##照
##煩
##煮
##煽
##熊
##熟
##熱
##燃
##燈
##燐
##燕
##燗
##燥
##燦
##燭
##燵
##燻
##爆
##爛
##爪
##爬
##爵
##父
##爺
##爽
##爾
##片
##版
##牌
##牙
##牛
##牝
##牟
##牡
##牢
##牧
##物
##牲
##特
##牽
##犀
##犠
##犬
##犯
##状
##狂
##狐
##狗
##狙
##狛
##狡
##狩
##独
##狭
##狸
##狼
##猛
##猟
##猥
##猩
##猪
##猫
##献
##猿
##獄
##獅
##獣
##獲
##獺
##玄
##率
##玉
##王
##玖
##玩
##玲
##珀
##珂
##珈
##珍
##珠
##班
##現
##球
##理
##琉
##琢
##琲
##琳
##琴
##琶
##瑚
##瑛
##瑞
##瑠
##璃
##璧
##環
##璽
##瓜
##瓢
##瓦
##瓶
##甑
##甘
##甚
##甜
##生
##産
##用
##田
##由
##甲
##申
##男
##町
##画
##界
##畑
##畔
##留
##畜
##畝
##畠
##略
##番
##異
##畳
##當
##畷
##畿
##疇
##疋
##疎
##疑
##疫
##疱
##疲
##疹
##疼
##疾
##病
##症
##痍
##痒
##痔
##痕
##痘
##痙
##痛
##痢
##痩
##痰
##痴
##痺
##瘍
##瘡
##瘤
##療
##癌
##癒
##癖
##癪
##発
##登
##發
##白
##百
##的
##皆
##皇
##皐
##皮
##皺
##皿
##盃
##盆
##益
##盗
##盛
##盟
##監
##盤
##目
##盲
##直
##相
##盾
##省
##眉
##看
##県
##眞
##真
##眠
##眩
##眼
##着
##睡
##督
##睦
##睨
##瞞
##瞬
##瞭
##瞰
##瞳
##瞼
##矛
##矢
##知
##短
##矯
##石
##砂
##研
##砕
##砥
##砦
##砲
##破
##砺
##硝
##硫
##硬
##碁
##碌
##碍
##碑
##碓
##碗
##碧
##確
##磁
##磋
##磐
##磔
##磨
##磯
##礁
##礎
##礫
##示
##礼
##社
##祀
##祇
##祈
##祉
##祐
##祓
##祖
##祝
##神
##祠
##祢
##祥
##票
##祭
##祷
##禁
##禄
##禅
##禍
##福
##禰
##禽
##禿
##秀
##私
##秋
##科
##秒
##秘
##租
##秤
##秦
##秩
##称
##移
##稀
##程
##税
##稔
##稚
##稜
##種
##稲
##稼
##稽
##稿
##穀
##穂
##積
##穏
##穢
##穣
##穫
##穴
##究
##空
##穿
##突
##窃
##窄
##窒
##窓
##窟
##窩
##窪
##窮
##窯
##竄
##竈
##立
##站
##竜
##章
##竣
##童
##端
##競
##竹
##竿
##笏
##笑
##笘
##笛
##笠
##符
##第
##笹
##筆
##筈
##等
##筋
##筍
##筏
##筐
##筑
##筒
##答
##策
##箇
##箋
##箏
##箒
##箔
##箕
##算
##管
##箪
##箱
##箸
##節
##範
##篇
##築
##篠
##篤
##篭
##簀
##簡
##簾
##簿
##籍
##籠
##籤
##米
##籾
##粉
##粋
##粒
##粕
##粘
##粛
##粟
##粥
##粧
##精
##糀
##糊
##糖
##糞
##糠
##糧
##糸
##系
##糾
##紀
##約
##紅
##紋
##納
##紐
##純
##紗
##紘
##紙
##級
##紛
##素
##紡
##索
##紫
##紬
##累
##細
##紳
##紹
##紺
##終
##組
##絆
##経
##結
##絞
##絡
##給
##絨
##統
##絲
##絵
##絶
##絹
##継
##続
##綜
##維
##綱
##網
##綴
##綺
##綻
##綾
##綿
##緊
##緋
##総
##緑
##緒
##線
##締
##編
##緩
##緯
##練
##緻
##縁
##縄
##縋
##縛
##縞
##縣
##縦
##縫
##縮
##總
##績
##繁
##繊
##繋
##繍
##織
##繕
##繫
##繭
##繰
##纏
##缶
##罠
##罪
##置
##罰
##署
##罵
##罷
##罹
##羅
##羊
##美
##羞
##群
##義
##羹
##羽
##翁
##翌
##習
##翔
##翠
##翡
##翳
##翼
##耀
##老
##考
##者
##耆
##而
##耐
##耕
##耗
##耳
##耶
##耽
##聖
##聘
##聚
##聞
##聡
##聲
##聴
##職
##肇
##肉
##肋
##肌
##肖
##肘
##肛
##肝
##股
##肢
##肥
##肩
##肪
##肯
##育
##肴
##肺
##胃
##胆
##背
##胎
##胞
##胡
##胱
##胴
##胸
##能
##脂
##脆
##脇
##脈
##脊
##脚
##脛
##脱
##脳
##脹
##腎
##腐
##腑
##腔
##腕
##腫
##腰
##腱
##腸
##腹
##腺
##腿
##膏
##膚
##膜
##膝
##膠
##膣
##膨
##膳
##膿
##臆
##臓
##臣
##臥
##臨
##自
##臭
##至
##致
##臼
##與
##興
##舌
##舎
##舐
##舗
##舘
##舞
##舟
##航
##舫
##般
##舵
##舶
##舷
##船
##艇
##艦
##良
##色
##艶
##芋
##芒
##芝
##芥
##芯
##花
##芳
##芸
##芹
##芻
##芽
##苅
##苑
##苔
##苗
##苛
##若
##苦
##苫
##英
##苺
##茂
##茄
##茅
##茉
##茎
##茗
##茜
##茨
##茶
##茸
##茹
##草
##荒
##荘
##荷
##荻
##荼
##莉
##莫
##莱
##菅
##菊
##菌
##菓
##菖
##菜
##菩
##華
##菰
##菱
##萄
##萌
##萎
##萩
##萬
##萱
##落
##葉
##著
##葛
##董
##葦
##葬
##葱
##葵
##葺
##蒔
##蒙
##蒜
##蒡
##蒲
##蒸
##蒻
##蒼
##蓄
##蓉
##蓋
##蓑
##蓬
##蓮
##蓼
##蔑
##蔓
##蔦
##蔭
##蔵
##蔽
##蕉
##蕎
##蕗
##蕨
##蕩
##蕪
##蕾
##薄
##薇
##薔
##薗
##薙
##薦
##薩
##薪
##薫
##薬
##薮
##薯
##藁
##藍
##藏
##藝
##藤
##藩
##藪
##藻
##蘇
##蘭
##虎
##虐
##虚
##虜
##虞
##虫
##虹
##蚊
##蚕
##蚤
##蛇
##蛉
##蛋
##蛍
##蛙
##蛛
##蛤
##蛮
##蛸
##蛾
##蜂
##蜘
##蜜
##蜻
##蝉
##蝋
##蝕
##蝗
##蝦
##蝶
##蝿
##融
##螺
##蟲
##蟹
##蟻
##蠅
##蠍
##蠣
##血
##衆
##行
##術
##街
##衛
##衝
##衡
##衣
##表
##衰
##衷
##衿
##袈
##袋
##袖
##被
##袴
##裁
##裂
##装
##裏
##裔
##裕
##補
##裟
##裳
##裸
##製
##裾
##褄
##複
##褌
##褐
##褒
##褪
##襖
##襟
##襲
##襷
##西
##要
##覆
##覇
##見
##規
##視
##覗
##覚
##覧
##親
##観
##角
##解
##触
##言
##訂
##計
##訊
##討
##訓
##託
##記
##訛
##訝
##訟
##訣
##訪
##設
##許
##訳
##訴
##訶
##診
##証
##詈
##詔
##評
##詛
##詞
##詠
##詣
##試
##詩
##詮
##詰
##話
##該
##詳
##誅
##誇
##誉
##誌
##認
##誓
##誕
##誘
##語
##誠
##誤
##説
##読
##誰
##課
##調
##談
##請
##諏
##諒
##論
##諜
##諦
##諧
##諭
##諸
##諾
##謀
##謁
##謂
##謎
##謗
##謙
##講
##謝
##謡
##謹
##識
##譚
##譜
##警
##議
##譲
##護
##讃
##讐
##谷
##豆
##豊
##豚
##象
##豪
##豹
##貌
##貝
##貞
##負
##財
##貢
##貧
##貨
##販
##貫
##責
##貯
##貰
##貴
##貶
##買
##貸
##費
##貼
##貿
##賀
##賂
##賃
##賄
##資
##賊
##賑
##賓
##賛
##賜
##賞
##賠
##賢
##賣
##賤
##賦
##質
##購
##賽
##贄
##贈
##赤
##赦
##走
##起
##超
##越
##趣
##足
##趾
##跋
##距
##跡
##跨
##路
##跳
##践
##踊
##踏
##踪
##踵
##蹄
##蹊
##蹟
##蹴
##躁
##躇
##躍
##躓
##躙
##身
##躾
##車
##軋
##軌
##軍
##軒
##軟
##転
##軸
##軽
##較
##載
##輌
##輔
##輝
##輩
##輪
##輸
##輿
##轄
##轍
##轟
##轢
##辛
##辞
##辟
##辣
##辰
##辱
##農
##辺
##辻
##込
##迄
##迅
##迎
##近
##返
##这
##迦
##迫
##迭
##述
##迷
##追
##退
##送
##逃
##逅
##逆
##透
##逐
##逓
##途
##逗
##這
##通
##逝
##逞
##速
##造
##逢
##連
##週
##進
##逸
##逼
##遂
##遅
##遇
##遊
##運
##遍
##過
##道
##達
##違
##遜
##遠
##遣
##遥
##適
##遭
##遮
##遷
##選
##遺
##遼
##遽
##避
##邁
##還
##邉
##邊
##邑
##那
##邦
##邪
##邸
##郁
##郊
##郎
##郡
##部
##郭
##郵
##郷
##都
##鄙
##酉
##酊
##酌
##配
##酎
##酒
##酔
##酛
##酢
##酪
##酬
##酵
##酷
##酸
##醂
##醇
##醍
##醐
##醒
##醜
##醤
##醬
##醸
##采
##釈
##里
##重
##野
##量
##金
##釘
##釜
##針
##釣
##釧
##鈍
##鈴
##鉄
##鉛
##鉢
##鉱
##鉾
##銀
##銃
##銅
##銘
##銭
##鋏
##鋭
##鋲
##鋳
##鋸
##鋼
##錆
##錠
##錦
##錫
##錬
##錮
##錯
##録
##鍋
##鍛
##鍬
##鍮
##鍵
##鍼
##鎌
##鎖
##鎚
##鎧
##鎮
##鏑
##鏡
##鐘
##鐵
##鑑
##鑽
##長
##門
##閃
##閉
##開
##閑
##間
##関
##閣
##閤
##閥
##閲
##闇
##闊
##闘
##阜
##阪
##防
##阻
##阿
##陀
##附
##降
##限
##院
##陣
##除
##陥
##陰
##陳
##陵
##陶
##陸
##険
##陽
##隅
##隆
##隈
##隊
##階
##随
##隔
##隙
##際
##障
##隠
##隣
##隧
##隷
##隻
##隼
##雀
##雁
##雄
##雅
##集
##雇
##雉
##雌
##雑
##雛
##離
##難
##雨
##雪
##雫
##雰
##雲
##零
##雷
##雹
##電
##需
##震
##霊
##霜
##霞
##霧
##霰
##露
##靄
##青
##靖
##静
##非
##靡
##面
##革
##靭
##靱
##靴
##鞄
##鞍
##鞘
##鞠
##鞭
##韋
##韓
##韮
##音
##韻
##響
##頁
##頂
##頃
##項
##順
##須
##預
##頑
##頓
##領
##頚
##頬
##頭
##頸
##頻
##頼
##顆
##題
##額
##顎
##顔
##顕
##願
##顛
##類
##顧
##風
##颯
##飛
##食
##飢
##飩
##飯
##飲
##飴
##飼
##飽
##飾
##餃
##餅
##餉
##養
##餌
##餐
##餓
##餡
##館
##饅
##饒
##首
##香
##馬
##馳
##馴
##駄
##駅
##駆
##駐
##駒
##駕
##駿
##騎
##騒
##験
##騙
##騨
##騰
##驚
##骨
##骸
##髄
##高
##髪
##髭
##鬱
##鬼
##魁
##魂
##魅
##魎
##魔
##魚
##魯
##鮎
##鮑
##鮒
##鮨
##鮪
##鮫
##鮭
##鮮
##鯉
##鯖
##鯛
##鯨
##鯱
##鯵
##鰆
##鰐
##鰤
##鰯
##鰹
##鰻
##鱈
##鱒
##鱗
##鳥
##鳩
##鳳
##鳴
##鳶
##鴉
##鴎
##鴨
##鴻
##鵜
##鵠
##鵬
##鶏
##鶯
##鶴
##鷄
##鷲
##鷹
##鷺
##鸞
##鹸
##鹿
##麒
##麓
##麗
##麟
##麦
##麩
##麵
##麹
##麺
##麻
##麿
##黄
##黎
##黒
##黙
##鼎
##鼓
##鼠
##鼻
##齋
##齢
##齧
##龍
##ꇴ
##ꈊ
##ꈍ
##ꉂ
##ꐦ
##꒦
##꒪
##꒫
##꒰
##꒱
##꒳
##ꔛ
##ꕤ
##Ꙭ
##꙳
##꜀
##꜄
##꜆
##ꠥ
##고
##니
##다
##리
##소
##아
##야
##오
##요
##이
##일
##지
##하
##호
##﨑
##︎
##️
##￼
##𐤔
##𓂂
##𓂃
##𓇋
##𓈒
##𓌉
##𓏸
##𓐍
##𖠚
##𖤐
##𖥦
##𖥧
##𖦹
##🀄
##🃏
##🅰
##🅱
##🅿
##🆓
##🆕
##🆖
##🆗
##🆘
##🆙
##🆚
##🇦
##🇧
##🇨
##🇩
##🇪
##🇫
##🇬
##🇭
##🇮
##🇯
##🇰
##🇱
##🇲
##🇳
##🇴
##🇵
##🇶
##🇷
##🇸
##🇹
##🇺
##🇻
##🇼
##🇽
##🇾
##🇿
##🌀
##🌁
##🌂
##🌃
##🌄
##🌅
##🌆
##🌇
##🌈
##🌉
##🌊
##🌋
##🌌
##🌍
##🌎
##🌏
##🌐
##🌒
##🌓
##🌔
##🌕
##🌖
##🌙
##🌚
##🌛
##🌜
##🌝
##🌞
##🌟
##🌠
##🌡
##🌤
##🌥
##🌦
##🌧
##🌨
##🌩
##🌪
##🌫
##🌬
##🌭
##🌮
##🌯
##🌰
##🌱
##🌲
##🌳
##🌴
##🌵
##🌶
##🌷
##🌸
##🌹
##🌺
##🌻
##🌼
##🌽
##🌾
##🌿
##🍀
##🍁
##🍂
##🍃
##🍄
##🍅
##🍆
##🍇
##🍈
##🍉
##🍊
##🍋
##🍌
##🍍
##🍎
##🍏
##🍐
##🍑
##🍒
##🍓
##🍔
##🍕
##🍖
##🍗
##🍘
##🍙
##🍚
##🍛
##🍜
##🍝
##🍞
##🍟
##🍠
##🍡
##🍢
##🍣
##🍤
##🍥
##🍦
##🍧
##🍨
##🍩
##🍪
##🍫
##🍬
##🍭
##🍮
##🍯
##🍰
##🍱
##🍲
##🍳
##🍴
##🍵
##🍶
##🍷
##🍸
##🍹
##🍺
##🍻
##🍼
##🍽
##🍾
##🍿
##🎀
##🎁
##🎂
##🎃
##🎄
##🎅
##🎆
##🎇
##🎈
##🎉
##🎊
##🎋
##🎌
##🎍
##🎎
##🎏
##🎐
##🎑
##🎒
##🎓
##🎖
##🎙
##🎞
##🎟
##🎠
##🎡
##🎢
##🎣
##🎤
##🎥
##🎦
##🎧
##🎨
##🎩
##🎪
##🎫
##🎬
##🎭
##🎮
##🎯
##🎰
##🎱
##🎲
##🎳
##🎴
##🎵
##🎶
##🎷
##🎸
##🎹
##🎺
##🎻
##🎼
##🎽
##🎾
##🎿
##🏀
##🏁
##🏂
##🏃
##🏄
##🏅
##🏆
##🏇
##🏈
##🏉
##🏊
##🏋
##🏌
##🏍
##🏎
##🏏
##🏐
##🏒
##🏓
##🏔
##🏕
##🏖
##🏗
##🏘
##🏙
##🏚
##🏝
##🏞
##🏟
##🏠
##🏡
##🏢
##🏣
##🏥
##🏦
##🏨
##🏩
##🏪
##🏫
##🏬
##🏭
##🏮
##🏯
##🏰
##🏳
##🏴
##🏵
##🏸
##🏹
##🏺
##🏻
##🏼
##🏽
##🏾
##🏿
##🐀
##🐁
##🐂
##🐃
##🐄
##🐅
##🐆
##🐇
##🐈
##🐉
##🐊
##🐋
##🐌
##🐍
##🐎
##🐏
##🐐
##🐑
##🐒
##🐓
##🐔
##🐕
##🐖
##🐗
##🐘
##🐙
##🐚
##🐛
##🐜
##🐝
##🐞
##🐟
##🐠
##🐡
##🐢
##🐣
##🐤
##🐥
##🐦
##🐧
##🐨
##🐩
##🐪
##🐫
##🐬
##🐭
##🐮
##🐯
##🐰
##🐱
##🐲
##🐳
##🐴
##🐵
##🐶
##🐷
##🐸
##🐹
##🐺
##🐻
##🐼
##🐽
##🐾
##🐿
##👀
##👁
##👂
##👃
##👄
##👅
##👆
##👇
##👈
##👉
##👊
##👋
##👌
##👍
##👎
##👏
##👐
##👑
##👒
##👓
##👔
##👕
##👖
##👗
##👘
##👙
##👚
##👛
##👜
##👞
##👟
##👠
##👢
##👣
##👤
##👦
##👧
##👨
##👩
##👪
##👫
##👬
##👭
##👮
##👯
##👰
##👱
##👲
##👳
##👴
##👵
##👶
##👷
##👸
##👹
##👺
##👻
##👼
##👽
##👾
##👿
##💀
##💁
##💃
##💄
##💅
##💆
##💇
##💈
##💉
##💊
##💋
##💌
##💍
##💎
##💏
##💐
##💑
##💒
##💓
##💔
##💕
##💖
##💗
##💘
##💙
##💚
##💛
##💜
##💝
##💞
##💟
##💠
##💡
##💢
##💣
##💤
##💥
##💦
##💧
##💨
##💩
##💪
##💫
##💬
##💭
##💮
##💯
##💰
##💳
##💴
##💵
##💸
##💹
##💺
##💻
##💼
##💿
##📀
##📄
##📅
##📆
##📈
##📉
##📌
##📍
##📑
##📕
##📖
##📗
##📘
##📚
##📛
##📝
##📞
##📡
##📢
##📣
##📦
##📧
##📨
##📩
##📮
##📯
##📰
##📱
##📲
##📶
##📷
##📸
##📹
##📺
##📻
##📽
##📿
##🔁
##🔅
##🔆
##🔊
##🔋
##🔌
##🔍
##🔎
##🔑
##🔔
##🔗
##🔚
##🔛
##🔜
##🔞
##🔥
##🔦
##🔧
##🔨
##🔩
##🔪
##🔫
##🔮
##🔰
##🔴
##🔵
##🔶
##🔷
##🔸
##🔹
##🔺
##🔻
##🔽
##🕊
##🕐
##🕒
##🕛
##🕯
##🕰
##🕳
##🕵
##🕶
##🕷
##🕸
##🕹
##🕺
##🖊
##🖋
##🖌
##🖐
##🖕
##🖖
##🖤
##🖥
##🖼
##🗑
##🗓
##🗝
##🗞
##🗡
##🗣
##🗨
##🗯
##🗳
##🗺
##🗻
##🗼
##🗽
##🗾
##🗿
##😀
##😁
##😂
##😃
##😄
##😅
##😆
##😇
##😈
##😉
##😊
##😋
##😌
##😍
##😎
##😏
##😐
##😑
##😒
##😓
##😔
##😕
##😖
##😗
##😘
##😙
##😚
##😛
##😜
##😝
##😞
##😟
##😠
##😡
##😢
##😣
##😤
##😥
##😦
##😧
##😨
##😩
##😪
##😫
##😬
##😭
##😮
##😯
##😰
##😱
##😲
##😳
##😴
##😵
##😶
##😷
##😸
##😹
##😺
##😻
##😼
##😽
##😾
##😿
##🙀
##🙁
##🙂
##🙃
##🙄
##🙅
##🙆
##🙇
##🙈
##🙉
##🙊
##🙋
##🙌
##🙍
##🙎
##🙏
##🚀
##🚁
##🚂
##🚃
##🚄
##🚅
##🚆
##🚇
##🚈
##🚉
##🚊
##🚋
##🚌
##🚍
##🚎
##🚏
##🚐
##🚑
##🚒
##🚓
##🚔
##🚕
##🚖
##🚗
##🚘
##🚙
##🚚
##🚛
##🚜
##🚝
##🚞
##🚢
##🚣
##🚤
##🚥
##🚧
##🚨
##🚩
##🚪
##🚫
##🚬
##🚭
##🚮
##🚰
##🚲
##🚴
##🚵
##🚶
##🚹
##🚺
##🚻
##🚽
##🚾
##🚿
##🛀
##🛁
##🛌
##🛍
##🛎
##🛏
##🛐
##🛒
##🛞
##🛠
##🛣
##🛤
##🛥
##🛩
##🛫
##🛬
##🛳
##🛵
##🛷
##🛸
##🛹
##🛻
##🟠
##🟡
##🟢
##🟣
##🟥
##🟦
##🟧
##🟨
##🟩
##🟰
##🤌
##🤍
##🤎
##🤏
##🤐
##🤑
##🤒
##🤓
##🤔
##🤕
##🤖
##🤗
##🤘
##🤙
##🤚
##🤛
##🤜
##🤝
##🤞
##🤟
##🤠
##🤡
##🤢
##🤣
##🤤
##🤥
##🤦
##🤧
##🤨
##🤩
##🤪
##🤫
##🤬
##🤭
##🤮
##🤯
##🤱
##🤲
##🤳
##🤴
##🤵
##🤶
##🤷
##🤸
##🤺
##🤼
##🤿
##🥀
##🥁
##🥂
##🥃
##🥄
##🥅
##🥇
##🥈
##🥉
##🥊
##🥋
##🥌
##🥎
##🥐
##🥑
##🥒
##🥓
##🥔
##🥕
##🥖
##🥗
##🥘
##🥙
##🥚
##🥛
##🥜
##🥝
##🥞
##🥟
##🥡
##🥢
##🥣
##🥤
##🥥
##🥦
##🥧
##🥩
##🥪
##🥫
##🥬
##🥭
##🥮
##🥯
##🥰
##🥱
##🥲
##🥳
##🥴
##🥵
##🥶
##🥷
##🥸
##🥹
##🥺
##🥾
##🦀
##🦁
##🦂
##🦃
##🦄
##🦅
##🦆
##🦇
##🦈
##🦉
##🦊
##🦋
##🦌
##🦍
##🦎
##🦏
##🦐
##🦑
##🦒
##🦓
##🦔
##🦕
##🦖
##🦗
##🦘
##🦙
##🦚
##🦛
##🦜
##🦝
##🦞
##🦟
##🦠
##🦢
##🦣
##🦥
##🦦
##🦩
##🦪
##🦫
##🦬
##🦭
##🦮
##🦰
##🦱
##🦲
##🦳
##🦴
##🦵
##🦶
##🦷
##🦸
##🦹
##🦺
##🦻
##🦾
##🧀
##🧁
##🧂
##🧄
##🧅
##🧇
##🧈
##🧊
##🧋
##🧎
##🧏
##🧐
##🧑
##🧒
##🧓
##🧔
##🧖
##🧘
##🧙
##🧚
##🧛
##🧜
##🧞
##🧟
##🧠
##🧡
##🧢
##🧣
##🧤
##🧥
##🧦
##🧧
##🧨
##🧩
##🧪
##🧬
##🧱
##🧳
##🧴
##🧵
##🧶
##🧸
##🧹
##🧺
##🧼
##🧽
##🩰
##🩲
##🩳
##🩵
##🩷
##🩸
##🩹
##🩺
##🪃
##🪄
##🪐
##🪑
##🪓
##🪖
##🪘
##🪙
##🪜
##🪞
##🪟
##🪡
##🪣
##🪥
##🪦
##🪨
##🪩
##🪫
##🪰
##🪳
##🪴
##🪵
##🪶
##🪷
##🪸
##🫀
##🫂
##🫃
##🫅
##🫐
##🫑
##🫒
##🫓
##🫕
##🫖
##🫘
##🫠
##🫡
##🫢
##🫣
##🫤
##🫥
##🫦
##🫧
##🫨
##🫰
##🫱
##🫲
##🫴
##🫵
##🫶
##󠁢
##󠁥
##󠁧
##󠁮
##󠁿
!!
!☺
!✨
')
('
(*
(-
(.
(:
(;
(=
(^
(`
(⁠
(⌒
(┐
(╹
)-
)✨
*'
*)
*^
,,
-(
-)
--
.)
..
00
01
02
03
04
05
06
07
08
09
10
11
12
13
14
15
16
17
18
19
20
21
22
23
24
25
26
27
28
29
30
31
32
33
34
35
36
37
38
39
40
41
42
43
44
45
46
47
48
49
50
51
52
53
54
55
56
57
58
59
60
61
62
63
64
65
66
67
68
69
70
71
72
73
74
75
76
77
78
79
80
81
82
83
84
85
86
87
88
89
90
91
92
93
94
95
96
97
98
99
:(
:)
;&
;)
;∀
AA
AB
AC
AD
AE
AF
AG
AI
AJ
AK
AL
AM
AN
AP
AR
AS
AT
AV
AW
AZ
Ad
Ak
Al
Am
An
Ap
Aq
Ar
As
BA
BB
BC
BD
BE
BL
BM
BO
BP
BR
BS
BY
Be
Bi
Bl
Br
Bs
Bu
By
CA
CB
CC
CD
CF
CG
CH
CL
CM
CO
CP
CQ
CR
CS
CT
CV
CX
Ch
Cl
Co
DA
DB
DC
DD
DE
DF
DH
DJ
DL
DM
DO
DP
DQ
DR
DS
DV
DX
Da
De
Di
Do
Dr
EC
ED
EF
EL
EM
EN
EP
ER
ES
EV
EX
Ed
En
Ex
FA
FB
FC
FD
FE
FF
FK
FL
FM
FO
FP
FR
FS
FT
FU
FW
FX
Fi
Fl
Fr
GB
GD
GG
GH
GI
GK
GL
GM
GO
GP
GR
GS
GT
GU
GW
Go
Gr
HC
HD
HE
HG
HK
HM
HO
HP
HR
HY
He
Hi
IC
ID
II
IM
IN
IP
IQ
IR
IS
IT
IV
IW
In
Is
It
JA
JB
JC
JF
JK
JO
JP
JR
JT
Jr
KA
KC
KE
KK
KO
KP
KY
LA
LC
LD
LE
LL
LO
LP
LS
LV
La
Le
Li
Lv
MA
MC
MD
ME
MF
MG
MH
MK
ML
MM
MO
MP
MR
MS
MT
MV
MX
MY
Ma
Me
Mi
Mr
My
NA
NC
ND
NE
NG
NH
NM
NO
NP
NS
NY
Ne
Ni
No
OA
OB
OF
OG
OH
OK
OL
OM
ON
OP
OR
OS
Oh
Ok
On
Or
PA
PB
PC
PD
PE
PH
PK
PL
PM
PO
PP
PR
PS
PV
Pe
Pl
Pr
QR
QS
QU
Qu
RA
RC
RE
RG
RK
RO
RP
RR
RS
RT
RX
RY
Re
SA
SB
SC
SD
SE
SF
SG
SH
SK
SL
SM
SN
SO
SP
SR
SS
ST
SU
SV
SW
Sa
Sc
Se
Sh
Sl
Sm
Sp
St
Su
Sw
TA
TB
TC
TD
TE
TH
TK
TL
TM
TN
TO
TP
TR
TS
TT
TV
TW
Te
Th
To
Tr
Tw
UD
UF
UN
UP
UR
US
UT
Un
Up
VR
VS
VT
Vo
WA
WC
WD
WE
WR
WS
We
Wh
Wi
XL
YO
YU
ZO
\(
\\
^)
^-
^;
^^
__
`)
`*
ab
ac
ad
ag
ak
al
am
an
ap
ar
as
at
au
be
bl
br
by
cc
ch
cl
cm
co
cr
de
dj
dm
do
dr
em
en
er
et
ex
fl
fm
fr
gh
gl
go
gr
gt
he
hi
iP
ic
in
ip
is
it
jp
ke
kg
km
kn
ku
ld
le
lt
ma
me
mg
mi
ml
mm
mt
my
nd
ne
nh
nj
no
oO
of
oh
ok
on
or
pc
pe
pl
pm
pr
ps
pt
pw
rd
re
rt
ry
sa
sb
sc
se
sh
sl
sm
sn
so
sp
ss
st
su
sw
te
th
to
tr
tv
tw
un
up
us
vo
vs
vv
we
wh
ww
yo
~☺
~✌
~✨
~❗
~❤
̀ᄇ
́ڡ
̖́
̗̀
̮̈
̵ᴗ
Φω
ᴗ͈
‹"
⁠)
⁡#
⁡⁡
⃙⃘
∀`
∑(
┏○
▽`
✨#
✨(
✨☀
✨☺
✨✨
❓❓
❗(
❗❗
❣❣
⸝⸝
。⁡
〆切
〜^
〜☺
〜✌
〜✨
〜❗
〜❣
〜❤
〜〜
ぁん
あぁ
ああ
あい
あう
あえ
あお
あか
あき
あく
あけ
あげ
あこ
あご
あさ
あざ
あし
あじ
あす
あず
あそ
あた
あだ
あっ
あつ
あて
あと
あな
あの
あふ
あぶ
あべ
あほ
あま
あみ
あめ
あや
あゆ
あら
あり
ある
あれ
あわ
あん
あー
いい
いう
いえ
いか
いき
いく
いけ
いこ
いさ
いざ
いし
いじ
いす
いず
いそ
いた
いち
いっ
いつ
いづ
いて
いで
いと
いな
いぬ
いの
いま
いみ
いも
いゃ
いや
いよ
いら
いり
いる
いれ
いろ
いわ
いん
いー
うい
うぅ
うう
うぇ
うえ
うぉ
うお
うか
うけ
うさ
うし
うす
うず
うそ
うた
うち
うっ
うつ
うな
うに
うふ
うま
うみ
うむ
うめ
うら
うり
うる
うれ
うろ
うわ
うん
うー
えい
えぇ
ええ
えぐ
えげ
えっ
えび
えみ
えら
えり
える
えん
えー
おい
おう
おぉ
おお
おか
おき
おく
おけ
おこ
おご
おさ
おし
おじ
おせ
おそ
おだ
おち
おっ
おつ
おと
おな
おの
おは
おば
おび
おぼ
おめ
おも
おや
およ
おら
おり
おる
おれ
おろ
おわ
おん
おー
お初
お前
お腹
お袋
お陰
かぁ
かあ
かい
かえ
かお
かか
かが
かき
かく
かぐ
かけ
かさ
かし
かじ
かす
かず
かた
かち
かっ
かつ
かな
かね
かの
かぶ
かほ
かぼ
かま
かみ
かめ
かも
かゆ
から
かり
かる
かれ
かわ
かん
かー
か月
がぁ
がい
がけ
がた
がち
がっ
がな
がら
がり
がる
がわ
がん
きい
きか
きき
きく
きし
きた
きち
きっ
きつ
きな
きの
きび
きみ
きめ
きも
きゃ
きゅ
きょ
きよ
きら
きり
きる
きれ
きん
ぎゃ
ぎゅ
ぎり
ぎん
くい
くぅ
くう
くさ
くし
くじ
くす
くず
くせ
くそ
くた
くだ
くち
くっ
くつ
くに
くま
くみ
くも
くら
くり
くる
くれ
くろ
くわ
くん
ぐい
ぐう
ぐち
ぐっ
ぐら
ぐり
ぐる
ぐー
けい
けっ
けつ
けど
けほ
けん
けー
げん
こい
こう
こえ
こき
こく
こけ
ここ
こさ
こし
こじ
こそ
こた
こだ
こち
こっ
こと
こな
こね
この
こば
こぼ
こま
こみ
こむ
こめ
こや
こよ
こら
こり
これ
ころ
こわ
こん
こー
ごい
ごく
ござ
ごち
ごっ
ごと
ごま
ごみ
ごり
ごろ
ごん
ご覧
ご飯
さぁ
さあ
さい
さえ
さか
さき
さく
さけ
ささ
さし
さす
させ
さぞ
さだ
さっ
さて
さと
さば
さび
さぶ
さま
さみ
さむ
さも
さや
さゆ
さよ
さら
さり
さる
さわ
さん
さー
ざい
ざす
ざっ
ざま
ざる
ざわ
ざん
ざー
しい
しぇ
しお
しか
しき
しく
しげ
しこ
しし
しず
しそ
した
しっ
しつ
しな
しの
しば
しぶ
しま
しみ
しめ
しも
しゃ
しゅ
しょ
しよ
しら
しり
しる
しれ
しろ
しん
しー
じぃ
じい
じぇ
じき
じじ
じつ
じゃ
じゅ
じょ
じわ
じん
すい
すか
すき
すぎ
すく
すぐ
すけ
すげ
すこ
すご
すし
すす
すず
すそ
すた
すっ
すな
すね
すば
すべ
すま
すみ
すら
すり
する
すれ
すわ
すん
ずい
ずっ
ずつ
ずぶ
ずら
ずり
ずる
ずれ
ずん
せい
せえ
せき
せせ
せっ
せつ
せや
せよ
せり
せる
せれ
せろ
せん
ぜひ
ぜん
ぜー
そい
そう
そこ
そそ
そっ
その
そば
そも
そよ
そら
それ
そろ
そん
そー
ぞい
ぞう
ぞぉ
ぞー
たぁ
たあ
たい
たか
たき
たく
たけ
たげ
たこ
たし
たす
たた
ただ
たち
たっ
たつ
たて
たと
たな
たに
たの
たば
たび
たべ
たま
ため
たら
たり
たる
たれ
たろ
たん
たー
だぁ
だあ
だい
だく
だけ
だこ
だし
だす
だせ
だだ
だっ
だな
だに
だめ
だら
だり
だる
だれ
だろ
だん
だー
ちい
ちう
ちぇ
ちえ
ちか
ちち
ちぢ
ちっ
ちと
ちば
ちび
ちま
ちむ
ちゃ
ちや
ちゅ
ちょ
ちよ
ちら
ちり
ちん
ぢゃ
っけ
っこ
っす
っち
っつ
って
っと
っぱ
っぺ
っぽ
っコ
っス
っ子
つい
つう
つか
つき
つぎ
つく
つぐ
つけ
つっ
つつ
つな
つね
つば
つぶ
つぼ
つま
つむ
つめ
つや
つゆ
つよ
つら
つり
つる
つれ
つん
つー
づき
づけ
づつ
づら
てぃ
てい
てぇ
てえ
てか
てき
てく
てけ
てこ
てっ
てつ
てめ
てら
てる
てれ
てろ
てん
てー
でぇ
でき
でけ
でこ
でし
です
でっ
でつ
でら
でる
でん
でー
とい
とぅ
とう
とぉ
とお
とか
とき
とく
とけ
とこ
とし
とち
とっ
とて
とと
とど
とに
とび
とめ
とも
とら
とり
とる
とれ
とろ
とん
とー
どい
どう
どぉ
どき
どけ
どこ
どし
どす
どっ
どの
ども
どら
どり
どる
どれ
どろ
どん
どー
なぁ
なあ
ない
なう
なお
なか
なが
なき
なぎ
なく
なご
なさ
なし
なす
なぜ
なぞ
なっ
なつ
なで
など
なな
なに
なは
なべ
なま
なみ
なめ
なや
なら
なり
なる
なれ
なん
なァ
なー
にぃ
にい
にぎ
にく
にこ
にじ
にち
にて
にゃ
にょ
にら
にん
にー
ぬい
ぬか
ぬく
ぬこ
ぬる
ねぇ
ねえ
ねぎ
ねこ
ねじ
ねだ
ねっ
ねね
ねむ
ねる
ねん
ねー
のぅ
のう
のぉ
のせ
のぞ
のち
のっ
のど
のび
のぶ
のぼ
のみ
のら
のり
のる
のん
のー
はぁ
はあ
はい
はか
はく
はし
はじ
はず
はた
はち
はっ
はつ
はて
はな
はね
はま
はみ
はめ
はや
はら
はり
はる
はん
はー
ばぁ
ばあ
ばい
ばか
ばく
ばけ
ばし
ばっ
ばば
ばら
ばり
ばれ
ばん
ばー
ぱい
ぱち
ぱっ
ぱら
ぱん
ひい
ひか
ひき
ひく
ひげ
ひこ
ひさ
ひじ
ひた
ひだ
ひっ
ひつ
ひで
ひと
ひど
ひな
ひね
ひま
ひめ
ひも
ひゃ
ひや
ひょ
ひよ
ひら
ひる
ひろ
ひん
びっ
びわ
びん
びー
ぴあ
ぴっ
ぴん
ぴー
ふぁ
ふぅ
ふう
ふぇ
ふか
ふき
ふく
ふぐ
ふさ
ふざ
ふし
ふじ
ふた
ふっ
ふつ
ふと
ふな
ふふ
ふみ
ふむ
ふら
ふり
ふる
ふれ
ふろ
ふわ
ふん
ふー
ぶた
ぶち
ぶっ
ぶつ
ぶら
ぶり
ぶる
ぶれ
ぶん
ぶー
ぷり
ぷる
ぷん
ぷー
へい
へぇ
へそ
へっ
へん
へー
べい
べき
べく
べし
べっ
べつ
べろ
べん
ぺこ
ぺろ
ぺん
ほい
ほう
ほか
ほく
ほぐ
ほし
ほっ
ほと
ほど
ほな
ほの
ほほ
ほぼ
ほめ
ほら
ほり
ほろ
ほん
ほー
ぼう
ぼく
ぼち
ぼっ
ぼん
ぼー
ぽい
ぽか
ぽく
ぽこ
ぽち
ぽん
まぁ
まあ
まい
まう
まえ
まか
まき
まく
まこ
まさ
まし
まじ
ます
まず
ませ
まぜ
また
まだ
まち
まっ
まつ
まで
まと
まど
まな
まね
まひ
まへ
まほ
まま
まみ
まめ
まゆ
まり
まる
まろ
まん
まー
みえ
みお
みか
みき
みく
みこ
みさ
みす
みず
みせ
みそ
みた
みち
みっ
みつ
みな
みの
みほ
みみ
みや
みゆ
みよ
みる
みれ
みろ
みん
むか
むぎ
むく
むけ
むし
むす
むず
むっ
むつ
むむ
むら
むり
めい
めぐ
めざ
めし
めで
めん
もう
もえ
もぉ
もく
もぐ
もこ
もし
もた
もち
もっ
もつ
もて
もと
もど
もの
もふ
もみ
もも
もや
もら
もり
もれ
もろ
もん
もー
やあ
やい
やか
やが
やき
やく
やけ
やさ
やし
やす
やっ
やつ
やな
やね
やば
やま
やみ
やむ
やめ
やや
やら
やり
やる
やれ
やろ
やわ
やん
やー
ゆい
ゆう
ゆえ
ゆか
ゆき
ゆく
ゆこ
ゆず
ゆっ
ゆで
ゆな
ゆみ
ゆめ
ゆら
ゆり
ゆる
ゆー
よい
よぅ
よう
よぉ
よお
よき
よく
よこ
よさ
よし
よそ
よっ
よみ
よも
より
よる
よろ
よん
よー
らぁ
らあ
らい
らく
らし
らぶ
らら
られ
らん
らー
りえ
りか
りく
りさ
りす
りな
りほ
りん
るい
るな
るり
るる
れい
れお
れな
れる
れれ
れん
ろう
ろく
わぁ
わあ
わい
わか
わが
わき
わけ
わざ
わし
わた
わっ
わな
わら
わり
わる
われ
わろ
わん
わー
をば
んし
んす
んっ
んで
んと
んな
んー
アイ
アウ
アオ
アカ
アガ
アキ
アク
アグ
アケ
アゲ
アコ
アゴ
アサ
アザ
アシ
アジ
アス
アズ
アセ
アソ
アタ
アダ
アッ
アツ
アテ
アト
アド
アナ
アニ
アネ
アノ
アバ
アパ
アヒ
アビ
アピ
アフ
アブ
アプ
アベ
アホ
アボ
アポ
アマ
アミ
アム
アメ
アヤ
アラ
アリ
アル
アレ
アロ
アワ
アン
アー
イイ
イェ
イエ
イカ
イキ
イギ
イク
イグ
イケ
イシ
イジ
イス
イズ
イソ
イタ
イチ
イッ
イト
イナ
イニ
イヌ
イノ
イブ
イベ
イマ
イメ
イモ
イヤ
イラ
イル
イレ
イロ
イワ
イン
イヴ
イー
ウィ
ウイ
ウェ
ウエ
ウォ
ウオ
ウキ
ウク
ウケ
ウザ
ウズ
ウソ
ウタ
ウチ
ウッ
ウト
ウナ
ウニ
ウバ
ウマ
ウミ
ウメ
ウラ
ウリ
ウル
ウレ
ウワ
ウン
ウー
エア
エイ
エエ
エキ
エク
エグ
エコ
エゴ
エサ
エジ
エス
エゾ
エッ
エド
エナ
エニ
エネ
エビ
エピ
エフ
エプ
エペ
エボ
エマ
エミ
エム
エメ
エモ
エラ
エリ
エル
エレ
エロ
エン
エー
オア
オイ
オオ
オカ
オキ
オク
オケ
オサ
オシ
オジ
オス
オタ
オチ
オッ
オツ
オト
オナ
オニ
オハ
オバ
オフ
オブ
オプ
オペ
オホ
オマ
オム
オメ
オモ
オヤ
オラ
オリ
オル
オレ
オロ
オワ
オン
オー
カイ
カウ
カエ
カオ
カカ
カキ
カギ
カク
カケ
カゴ
カサ
カシ
カジ
カス
カズ
カタ
カチ
カッ
カツ
カテ
カト
カド
カナ
カニ
カネ
カノ
カバ
カビ
カピ
カブ
カプ
カボ
カマ
カミ
カム
カメ
カモ
カヤ
カラ
カリ
カル
カレ
カロ
カワ
カン
カー
カ月
ガイ
ガオ
ガキ
ガク
ガス
ガソ
ガタ
ガチ
ガツ
ガバ
ガブ
ガム
ガラ
ガリ
ガル
ガレ
ガン
ガー
キク
キジ
キス
キズ
キタ
キチ
キッ
キツ
キノ
キビ
キマ
キミ
キム
キメ
キモ
キャ
キュ
キョ
キヨ
キラ
キリ
キル
キレ
キロ
キン
キー
ギア
ギガ
ギタ
ギブ
ギャ
ギュ
ギラ
ギリ
ギル
ギン
ギー
クア
クイ
クエ
クォ
クオ
クシ
クス
クズ
クセ
クソ
クチ
クビ
クマ
クモ
クラ
クリ
クル
クレ
クロ
クワ
クン
クー
グイ
ググ
グダ
グッ
グミ
グラ
グリ
グル
グレ
グロ
グン
グー
ケア
ケイ
ケガ
ケチ
ケツ
ケド
ケル
ケロ
ケン
ケー
ゲイ
ゲキ
ゲス
ゲラ
ゲル
ゲロ
ゲン
ゲー
コア
コイ
コウ
コカ
コキ
コク
コケ
ココ
コシ
コス
コソ
コタ
コツ
コテ
コト
コネ
コノ
コバ
コピ
コブ
コマ
コミ
コム
コメ
コラ
コリ
コル
コレ
コロ
コワ
コン
コー
ゴキ
ゴゴ
ゴチ
ゴッ
ゴマ
ゴミ
ゴム
ゴリ
ゴル
ゴロ
ゴン
ゴー
サイ
サウ
サカ
サガ
サキ
サギ
サク
ササ
サザ
サシ
サス
サタ
サッ
サツ
サテ
サト
サバ
サビ
サブ
サプ
サボ
サポ
サマ
サム
サメ
サヨ
サラ
サル
サロ
サワ
サン
サー
ザキ
ザク
ザラ
ザル
ザワ
ザン
ザー
シア
シェ
シオ
シカ
シク
シグ
シゲ
シコ
シゴ
シシ
シス
シト
シナ
シネ
シバ
シビ
シブ
シベ
シマ
シミ
シメ
シモ
シャ
シュ
ショ
シラ
シリ
シル
シロ
シワ
シン
シー
ジェ
ジオ
ジグ
ジジ
ジム
ジメ
ジャ
ジュ
ジョ
ジワ
ジン
ジー
スイ
スカ
スキ
スギ
スク
スグ
スケ
スゲ
スコ
スゴ
スシ
スジ
スス
スズ
スタ
スチ
スッ
ステ
スト
スナ
スネ
スノ
スパ
スピ
スプ
スペ
スポ
スマ
スミ
スム
スモ
スヤ
スラ
スリ
スル
スレ
スロ
スワ
スン
スー
ズブ
ズラ
ズル
ズレ
セイ
セカ
セガ
セキ
セク
セコ
セト
セブ
セミ
セラ
セリ
セル
セレ
セロ
セン
ゼミ
ゼル
ゼロ
ゼン
ソイ
ソウ
ソコ
ソバ
ソフ
ソム
ソラ
ソリ
ソル
ソレ
ソロ
ソワ
ソン
ソー
ソ連
ゾウ
ゾロ
ゾン
タイ
タカ
タキ
タク
タグ
タケ
タコ
タス
タダ
タチ
タツ
タテ
タナ
タニ
タヌ
タネ
タバ
タピ
タフ
タブ
タマ
タミ
タム
タメ
タラ
タル
タレ
タロ
タワ
タン
ター
ダイ
ダウ
ダサ
ダシ
ダス
ダダ
ダブ
ダム
ダメ
ダラ
ダル
ダレ
ダン
ダー
チア
チェ
チカ
チキ
チク
チケ
チゲ
チビ
チャ
チュ
チョ
チラ
チリ
チル
チロ
チン
チー
ッて
ッと
ッス
ツィ
ツイ
ツキ
ツケ
ツナ
ツバ
ツボ
ツマ
ツモ
ツヤ
ツラ
ツル
ツレ
ツン
ツー
ティ
テイ
テキ
テク
テツ
テテ
テメ
テラ
テル
テレ
テロ
テン
テー
ディ
デイ
デカ
デキ
デコ
デザ
デジ
デス
デト
デパ
デビ
デフ
デブ
デマ
デミ
デモ
デュ
デラ
デリ
デル
デレ
デン
デー
トイ
トゥ
トウ
トキ
トク
トコ
トシ
トス
トド
トナ
トマ
トミ
トム
トモ
トヨ
トラ
トリ
トル
トレ
トロ
トン
トー
ドア
ドゥ
ドウ
ドカ
ドキ
ドク
ドコ
ドス
ドミ
ドム
ドヤ
ドラ
ドリ
ドル
ドレ
ドロ
ドン
ドー
ナイ
ナウ
ナオ
ナカ
ナガ
ナゴ
ナシ
ナス
ナチ
ナツ
ナナ
ナニ
ナノ
ナビ
ナマ
ナミ
ナム
ナメ
ナリ
ナル
ナン
ナー
ニア
ニキ
ニコ
ニシ
ニジ
ニセ
ニノ
ニボ
ニャ
ニヤ
ニュ
ニラ
ニワ
ニン
ニー
ヌル
ヌレ
ヌー
ネイ
ネオ
ネガ
ネギ
ネク
ネコ
ネジ
ネス
ネタ
ネト
ネム
ネモ
ネル
ネー
ノア
ノイ
ノウ
ノシ
ノブ
ノリ
ノル
ノロ
ノン
ノー
ハァ
ハイ
ハウ
ハク
ハグ
ハゲ
ハコ
ハシ
ハス
ハズ
ハセ
ハタ
ハチ
ハッ
ハツ
ハト
ハナ
ハニ
ハピ
ハブ
ハプ
ハマ
ハム
ハメ
ハヤ
ハラ
ハリ
ハル
ハレ
ハロ
ハン
ハー
バイ
バウ
バカ
バキ
バク
バグ
バケ
バシ
バス
バズ
バタ
バチ
バッ
バツ
バテ
バト
バド
バナ
バネ
ババ
バビ
バフ
バブ
バラ
バリ
バル
バレ
バン
バー
パイ
パウ
パキ
パク
パシ
パス
パソ
パタ
パチ
パッ
パツ
パテ
パト
パド
パナ
パノ
パパ
パピ
パブ
パラ
パリ
パル
パレ
パロ
パワ
パン
パー
ヒゲ
ヒデ
ヒト
ヒド
ヒナ
ヒビ
ヒマ
ヒメ
ヒャ
ヒヤ
ヒヨ
ヒラ
ヒリ
ヒル
ヒレ
ヒロ
ヒン
ヒー
ビア
ビギ
ビク
ビザ
ビシ
ビジ
ビス
ビタ
ビニ
ビバ
ビビ
ビラ
ビリ
ビル
ビン
ビー
ピア
ピエ
ピカ
ピク
ピコ
ピザ
ピタ
ピノ
ピュ
ピヨ
ピラ
ピリ
ピロ
ピン
ピー
ファ
フィ
フェ
フォ
フカ
フク
フグ
フジ
フタ
フッ
フラ
フリ
フル
フレ
フロ
フワ
フン
フー
ブイ
ブス
ブタ
ブチ
ブッ
ブツ
ブラ
ブリ
ブル
ブレ
ブロ
ブン
ブー
プス
プチ
プラ
プリ
プル
プレ
プロ
プー
ヘア
ヘイ
ヘタ
ヘッ
ヘト
ヘビ
ヘブ
ヘラ
ヘリ
ヘル
ヘロ
ヘン
ベア
ベイ
ベジ
ベス
ベタ
ベテ
ベト
ベネ
ベビ
ベラ
ベリ
ベル
ベロ
ベン
ベー
ペア
ペイ
ペコ
ペペ
ペラ
ペル
ペロ
ペン
ペー
ホイ
ホウ
ホカ
ホク
ホッ
ホモ
ホヤ
ホリ
ホル
ホロ
ホワ
ホン
ホー
ボイ
ボウ
ボク
ボケ
ボコ
ボス
ボソ
ボチ
ボッ
ボト
ボド
ボブ
ボヤ
ボラ
ボリ
ボル
ボロ
ボン
ボー
ポイ
ポカ
ポケ
ポコ
ポジ
ポス
ポタ
ポチ
ポツ
ポテ
ポリ
ポル
ポロ
ポン
ポー
マイ
マエ
マカ
マガ
マキ
マク
マグ
マサ
マシ
マジ
マス
マズ
マタ
マダ
マチ
マヂ
マッ
マツ
マテ
マド
マナ
マニ
マネ
マフ
マブ
ママ
マメ
マヤ
マヨ
マラ
マリ
マル
マン
マー
ミオ
ミカ
ミキ
ミク
ミサ
ミス
ミズ
ミソ
ミチ
ミツ
ミナ
ミニ
ミネ
ミノ
ミミ
ミモ
ミヤ
ミュ
ミラ
ミリ
ミル
ミン
ミー
ムカ
ムキ
ムシ
ムズ
ムダ
ムチ
ムネ
ムラ
ムリ
ムン
ムー
メイ
メカ
メガ
メシ
メス
メタ
メモ
メリ
メル
メロ
メン
メー
モア
モカ
モク
モグ
モザ
モス
モチ
モツ
モテ
モデ
モト
モナ
モニ
モノ
モバ
モヒ
モフ
モミ
モモ
モヤ
モラ
モリ
モル
モロ
モン
モー
ヤキ
ヤギ
ヤク
ヤケ
ヤス
ヤッ
ヤツ
ヤニ
ヤバ
ヤフ
ヤベ
ヤマ
ヤム
ヤメ
ヤラ
ヤリ
ヤル
ヤレ
ヤン
ヤー
ユウ
ユキ
ユニ
ユリ
ユル
ユン
ユー
ヨガ
ヨコ
ヨシ
ヨド
ヨネ
ヨル
ヨロ
ヨン
ヨー
ライ
ラウ
ラク
ラグ
ラジ
ラス
ラズ
ラテ
ラバ
ラビ
ラピ
ラフ
ラブ
ラプ
ラベ
ラボ
ラミ
ラム
ラメ
ララ
ラン
ラー
リア
リオ
リカ
リキ
リク
リコ
リサ
リザ
リス
リセ
リゾ
リト
リノ
リハ
リバ
リピ
リフ
リブ
リプ
リベ
リポ
リミ
リム
リモ
リヤ
リュ
リラ
リリ
リン
リー
ルイ
ルウ
ルカ
ルナ
ルリ
ルル
ルン
ルー
レア
レイ
レオ
レガ
レク
レグ
レコ
レシ
レジ
レス
レト
レノ
レバ
レフ
レブ
レベ
レポ
レム
レモ
レン
レー
ロア
ロイ
ロウ
ロキ
ロク
ログ
ロケ
ロコ
ロゴ
ロス
ロゼ
ロタ
ロボ
ロマ
ロリ
ロン
ロー
ワイ
ワカ
ワガ
ワク
ワケ
ワシ
ワタ
ワニ
ワラ
ワル
ワレ
ワロ
ワン
ワー
ヲタ
ンな
ンゴ
ヴァ
ヴィ
ヴェ
ヴォ
ヵ月
ヶ所
ヶ月
一ノ
一丸
一人
一会
一体
一切
一刻
一口
一同
一向
一味
一員
一塁
一夜
一定
一宮
一家
一層
一律
一心
一応
一息
一括
一撃
一斉
一方
一族
一日
一旦
一昨
一時
一服
一望
一杯
一歩
一段
一気
一流
一環
一生
一番
一目
一瞬
一種
一筋
一緒
一致
一般
一色
一見
一覧
一角
一言
一貫
一足
一転
一途
一連
一過
一郎
一部
一関
一面
一風
丁寧
丁度
丁目
七味
七夕
七瀬
七草
万が
万代
万全
万博
万歳
万端
万能
万葉
丈夫
三つ
三ツ
三ノ
三井
三十
三原
三味
三塁
三好
三宅
三宮
三島
三振
三昧
三木
三条
三沢
三河
三浦
三田
三笘
三脚
三苫
三菱
三角
三越
三郎
三郷
三重
三陸
三鷹
上げ
上り
上下
上京
上位
上原
上司
上品
上場
上尾
上川
上手
上旬
上昇
上映
上段
上流
上海
上田
上着
上空
上等
上級
上記
上質
上越
上達
上野
上限
上陸
下げ
下さ
下っ
下り
下位
下北
下呂
下品
下地
下山
下座
下手
下旬
下田
下町
下痢
下着
下落
下見
下記
下車
下道
下野
下関
下駄
不二
不便
不信
不倫
不全
不利
不動
不可
不味
不在
不安
不審
不尽
不幸
不快
不意
不明
不正
不法
不満
不眠
不能
不良
不要
不調
不足
与え
与党
与那
与野
且つ
世代
世帯
世界
世紀
世襲
世話
世論
世間
両国
両手
両方
両日
両立
両親
両面
並ば
並び
並ぶ
並べ
並み
並ん
並木
並行
中々
中井
中京
中傷
中共
中原
中古
中国
中型
中太
中央
中学
中居
中山
中島
中川
中年
中心
中断
中日
中旬
中本
中村
中森
中止
中毒
中津
中洲
中田
中盤
中目
中秋
中継
中華
中身
中途
中部
中野
中間
中高
丸々
丸い
丸く
丸亀
丸山
丹波
主な
主に
主人
主任
主体
主催
主力
主婦
主審
主導
主張
主役
主治
主流
主演
主義
主要
主観
主題
乃木
久々
久し
久保
久喜
久慈
久米
乗せ
乗っ
乗ら
乗り
乗る
乗れ
乗務
乗客
乗換
乗用
乗船
乗車
乙女
九十
九州
乞う
乞食
乱れ
乱入
乱舞
乳化
乳酸
乳首
乾い
乾く
乾杯
乾燥
亀山
亀岡
亀戸
亀有
了承
了解
予め
予備
予告
予報
予定
予想
予感
予測
予算
予約
予習
予言
予選
予防
争い
争奪
事件
事例
事前
事務
事実
事後
事情
事態
事故
事案
事業
事象
事項
二の
二人
二十
二子
二宮
二郎
云々
云う
互い
五十
五島
五目
五輪
五郎
井上
井口
井戸
亡き
亡く
交え
交互
交付
交代
交信
交差
交換
交流
交渉
交番
交通
交際
交響
京急
京成
京橋
京浜
京王
京田
京葉
京都
京阪
人々
人事
人件
人体
人出
人前
人力
人参
人口
人吉
人員
人工
人形
人手
人数
人材
人柄
人格
人権
人民
人気
人物
人生
人種
人身
人間
人類
今井
今回
今夜
今季
今宮
今宵
今川
今年
今度
今後
今日
今時
今晩
今更
今月
今朝
今期
今村
今池
今治
今週
今頃
介入
介護
仏壇
仏教
仕事
仕方
仕業
仕様
仕草
他人
他国
他店
他所
他県
他社
他者
付い
付か
付き
付く
付け
付与
付属
付近
仙人
仙台
代官
代打
代替
代理
代用
代行
代表
代謝
代走
代車
代金
令和
以上
以下
以内
以前
以外
以後
以来
以降
仮想
仮眠
仮装
仮面
仰っ
仰る
仲良
仲間
件数
任せ
任務
任意
企業
企画
伊丹
伊予
伊勢
伊吹
伊東
伊藤
伊豆
伊賀
伊達
伊那
伏せ
伏線
伏見
伐採
休ま
休み
休む
休め
休ん
休息
休憩
休日
休暇
休業
休止
休肝
休養
休館
会い
会う
会え
会っ
会わ
会合
会員
会場
会期
会津
会社
会見
会計
会話
会談
会議
会費
会長
会食
会館
伝え
伝承
伝統
伝説
伴い
伴う
伸び
伺い
伺う
伺っ
似顔
佃煮
但し
位置
低い
低く
低め
低下
低温
低音
住み
住む
住ん
住人
住友
住吉
住宅
住所
住民
住職
佐世
佐久
佐伯
佐倉
佐川
佐渡
佐藤
佐賀
佐野
体内
体制
体力
体型
体幹
体感
体操
体温
体育
体調
体質
体重
体験
何に
何事
何処
何十
何卒
何故
何時
何百
何者
余っ
余り
余る
余地
余市
余程
余裕
余計
余談
余韻
作っ
作ら
作り
作る
作れ
作動
作品
作家
作成
作戦
作曲
作業
作用
作画
作者
作詞
併せ
併用
併設
使い
使う
使え
使っ
使わ
使命
使用
例え
例外
例年
供え
供給
供養
依存
依頼
価値
価格
侮辱
侵入
侵害
侵攻
侵略
便り
便乗
便利
便秘
促進
保っ
保つ
保健
保冷
保存
保守
保安
保持
保有
保湿
保留
保管
保育
保証
保護
保険
保障
保養
信じ
信仰
信号
信州
信念
信濃
信玄
信用
信者
信長
信頼
修学
修復
修正
修理
修羅
修行
俯瞰
俳優
俳句
倉庫
倉敷
個々
個人
個体
個別
個室
個展
個性
倍増
倍率
倒し
倒す
倒せ
倒れ
倒産
候補
借り
借金
値段
倦怠
倫理
倶楽
偉い
偉大
偏っ
偏差
偏見
停め
停止
停滞
停車
停電
健全
健在
健太
健康
健診
健闘
側面
偵察
偶然
偽物
傑作
備え
備前
備忘
催し
催事
傾向
僅か
働い
働か
働き
働く
働け
儀式
優し
優れ
優位
優先
優勝
優子
優待
優秀
優良
優遇
優雅
儲け
元々
元日
元旦
元気
元町
元祖
兄妹
兄弟
兄貴
充分
充実
充電
先々
先ず
先人
先代
先制
先日
先月
先生
先発
先着
先祖
先程
先端
先行
先輩
先週
先進
先頭
光っ
光り
光る
光景
光栄
克服
免疫
免許
免除
兎に
児童
党員
党首
入っ
入ら
入り
入る
入れ
入会
入力
入口
入団
入国
入園
入場
入学
入居
入店
入庫
入手
入札
入浴
入社
入荷
入試
入賞
入金
入門
入間
入院
入館
全く
全て
全体
全力
全勝
全員
全国
全日
全曲
全滅
全然
全盛
全粒
全線
全般
全裸
全身
全部
全開
全面
全額
八丁
八丈
八代
八千
八尾
八幡
八戸
八方
八木
八潮
八百
八重
八雲
公共
公務
公園
公安
公平
公式
公明
公民
公演
公立
公約
公衆
公表
公認
公道
公開
六本
六甲
六角
共々
共同
共和
共存
共感
共有
共演
共産
共通
共闘
兵器
兵士
兵庫
其の
其れ
具体
具合
具材
典型
兼ね
兼用
内側
内定
内容
内山
内心
内海
内田
内科
内緒
内臓
内蔵
内藤
内装
内部
内野
内閣
内陸
円安
円盤
円高
再び
再会
再度
再来
再現
再生
再発
再訪
再販
再開
冒険
冒頭
冗談
写し
写っ
写り
写メ
写真
冠水
冥福
冬場
冬季
冬眠
冬至
冴え
冷え
冷し
冷た
冷め
冷や
冷凍
冷却
冷奴
冷房
冷蔵
冷製
冷静
冷麺
凄い
凄く
凍っ
凍る
凍結
凝っ
凝縮
処分
処刑
処方
処理
処置
凱旋
凶悪
凹む
凹ん
出さ
出し
出す
出せ
出る
出れ
出世
出会
出先
出前
出力
出動
出勤
出口
出品
出場
出展
出席
出店
出張
出撃
出来
出汁
出没
出港
出演
出版
出現
出生
出産
出番
出発
出社
出禁
出荷
出血
出費
出資
出走
出身
出逢
出陣
出雲
出馬
函館
刀剣
刃物
分か
分け
分位
分割
分厚
分岐
分散
分断
分析
分解
分野
分間
分離
分類
切っ
切に
切ら
切り
切る
切れ
切実
切断
切符
刈り
刈谷
刑事
刑務
列島
列車
初め
初代
初回
初夏
初心
初恋
初戦
初手
初日
初期
初耳
初見
初詣
初雪
初音
判ら
判り
判る
判定
判断
判明
判決
別々
別れ
別人
別名
別府
別格
別物
別皿
別荘
別途
利口
利尻
利根
利権
利用
利益
利確
到底
到来
到着
到達
制作
制定
制度
制御
制服
制裁
制覇
制限
券売
刺さ
刺し
刺す
刺激
刺繍
刺身
刻み
刻ん
削っ
削ら
削り
削る
削減
削除
前々
前世
前作
前列
前半
前回
前夜
前川
前後
前提
前方
前日
前期
前橋
前泊
前田
前線
前編
前者
前職
前菜
前走
前進
前面
前髪
剣道
剥い
剪定
副業
割っ
割と
割り
割る
割れ
割合
割引
割烹
創り
創作
創価
創業
創造
劇団
劇場
劇的
力士
功績
加え
加入
加古
加害
加工
加水
加減
加熱
加盟
加茂
加藤
加賀
加速
加齢
劣化
助け
助成
助手
助言
努め
努力
励み
労働
労力
効い
効か
効き
効く
効果
効率
勇人
勇気
勇者
勉強
動い
動か
動き
動く
動け
動作
動員
動揺
動機
動物
動産
動画
勘弁
務め
勝た
勝ち
勝っ
勝つ
勝て
勝る
勝利
勝手
勝敗
勝浦
勝率
勝田
勝負
募金
募集
勢い
勢力
勤め
勤務
勧め
勧誘
勾配
勿体
勿論
匂い
包ま
包み
包ん
包丁
化け
化し
化学
化石
化粧
北上
北九
北京
北側
北口
北川
北斗
北方
北朝
北村
北条
北極
北欧
北端
北見
北谷
北部
北野
北陸
北風
区別
区民
区議
区長
区間
医学
医師
医療
医者
医院
匿名
十分
十勝
十字
千代
千住
千尋
千本
千歳
千秋
千葉
千里
千鳥
午前
午後
半ば
半休
半分
半島
半年
半数
半日
半月
半期
半熟
半田
半端
半蔵
半袖
半身
半額
卑怯
卒業
卓上
卓球
協会
協力
協定
協議
協賛
南下
南側
南北
南口
南国
南海
南無
南端
南蛮
南部
南風
単に
単位
単体
単価
単勝
単品
単独
単発
単純
単行
単語
単身
博士
博多
博物
占い
占拠
占領
印刷
印象
危う
危惧
危機
危険
即興
却下
卸し
厄介
厚い
厚く
厚み
厚労
厚木
厚生
原付
原作
原価
原則
原因
原子
原宿
原料
原点
原爆
原理
原田
原画
原発
原稿
原酒
厨房
厩舎
厳し
厳密
厳禁
厳選
去っ
去る
去年
参っ
参り
参上
参入
参列
参加
参戦
参拝
参政
参照
参考
参議
参道
参院
及ば
及び
友人
友好
友情
友達
双子
双方
双葉
反し
反則
反動
反対
反射
反応
反抗
反撃
反日
反映
反発
反省
反論
反転
反面
反響
収め
収入
収容
収支
収益
収穫
収納
収録
収集
叔母
叔父
取っ
取ら
取り
取る
取れ
取付
取引
取得
取手
取扱
取材
取締
受け
受付
受信
受取
受注
受給
受診
受講
受賞
受験
口内
口座
口調
古い
古く
古代
古典
古参
古墳
古川
古本
古河
古町
古着
古賀
叩い
叩か
叩き
叩く
只中
只今
只見
叫び
叫ぶ
叫ん
召し
召喚
可動
可哀
可愛
可笑
可能
台場
台所
台数
台本
台東
台湾
台詞
台車
台風
叱ら
史上
右上
右下
右側
右手
右折
右翼
右肩
右腕
右足
叶い
叶う
叶え
叶っ
叶わ
号泣
司令
司会
司法
各々
各位
各務
各国
各地
各局
各所
各社
各種
各自
各駅
合い
合う
合え
合っ
合わ
合体
合併
合同
合唱
合宿
合意
合成
合戦
合掌
合格
合法
合流
合理
合計
合間
吉岡
吉川
吉本
吉村
吉田
吉祥
吉野
吊り
吊る
同い
同じ
同一
同人
同伴
同僚
同士
同好
同居
同志
同性
同情
同意
同感
同日
同時
同期
同様
同点
同盟
同窓
同等
同級
同行
同調
名乗
名人
名作
名刺
名前
名取
名城
名店
名所
名曲
名月
名残
名物
名産
名神
名称
名義
名言
名誉
名護
名鉄
名阪
名駅
吐い
吐き
吐く
向い
向か
向き
向く
向け
向上
向井
向日
吟醸
吠え
否め
否定
含ま
含み
含む
含め
含ん
吸い
吸う
吸っ
吸わ
吸収
吹い
吹か
吹き
吹く
吹っ
吹奏
吹田
吹雪
吾妻
呆れ
告げ
告発
告白
告知
呑ま
呑み
呑む
呑め
呑ん
呟い
呟き
呟く
周り
周南
周回
周囲
周年
周波
周知
周辺
周遊
呪い
呪文
呪術
味わ
味噌
味方
味見
味覚
呼ば
呼び
呼ぶ
呼べ
呼ん
呼吸
命令
命名
命日
和え
和也
和歌
和泉
和牛
和田
和風
和食
咲い
咲か
咲き
咲く
哀れ
哀愁
品川
品物
品種
品質
哲也
哲人
哲学
唐津
唐突
唯一
唱え
商事
商品
商売
商工
商店
商業
商法
商談
問い
問う
問わ
問題
啓発
善光
喋っ
喋ら
喋り
喋る
喋れ
喘息
喚起
喜ば
喜び
喜ぶ
喜ん
喜劇
喜多
喧嘩
喪失
喫煙
喫茶
喰い
喰う
喰っ
営業
嗅覚
嗚呼
噛ま
噛み
噛む
噛ん
器具
器用
噴水
噴火
四十
四国
四季
四川
四条
四球
四角
四谷
四駆
回さ
回し
回す
回せ
回っ
回ら
回り
回る
回れ
回収
回帰
回復
回数
回答
回線
回路
回転
回送
回避
因み
因果
団体
団地
団子
団結
団長
困っ
困ら
困り
困る
困惑
困難
囲ま
図書
図鑑
固い
固く
固め
固定
国交
国会
国体
国債
国内
国分
国土
国境
国宝
国家
国政
国旗
国民
国産
国益
国税
国立
国籍
国葬
国語
国賊
国連
国道
国鉄
国防
国際
園児
園田
園芸
土佐
土台
土地
土屋
土手
土日
土曜
土木
土浦
土産
土用
土砂
土鍋
圧倒
圧力
圧勝
圧巻
圧迫
在り
在る
在住
在宅
在庫
在日
在来
在籍
地上
地下
地位
地元
地区
地名
地味
地図
地域
地場
地帯
地形
地方
地点
地獄
地球
地理
地蔵
地道
地酒
地雷
地震
地面
地鶏
坂井
坂口
坂本
坂道
坊主
坦々
垂れ
垣間
埋め
城下
城址
城山
城崎
埠頭
執念
執着
執筆
執行
基地
基本
基準
基盤
基礎
埼京
埼玉
堀江
堂々
堕ち
堤防
堪え
堪ら
堪能
報わ
報告
報知
報道
報酬
場内
場合
場外
場所
場面
塗っ
塗り
塗る
塗料
塗装
塩分
塩味
塩尻
塩梅
塩辛
境内
境界
増え
増し
増す
増や
増加
増殖
増田
増税
増量
増額
墨田
壁紙
壊さ
壊し
壊す
壊れ
壊滅
壮大
声優
声援
壱岐
売っ
売ら
売り
売る
売れ
売上
売却
売国
売場
売店
売買
変え
変わ
変動
変化
変形
変態
変換
変更
変異
変身
夏場
夏季
夏目
夕べ
夕張
夕方
夕日
夕陽
夕食
夕飯
外さ
外し
外す
外せ
外れ
外交
外人
外側
外出
外務
外国
外来
外気
外科
外苑
外装
外見
外観
外資
外部
外野
外食
多々
多い
多く
多し
多め
多分
多少
多忙
多摩
多数
多様
多発
多肉
多賀
夜な
夜中
夜勤
夜景
夜更
夜桜
夜空
夜行
夜間
夜食
夢中
夢見
大い
大き
大丸
大事
大井
大人
大介
大仏
大会
大体
大作
大使
大分
大切
大判
大勝
大勢
大半
大原
大吉
大名
大和
大喜
大国
大地
大型
大垣
大城
大塚
大声
大変
大学
大宮
大家
大将
大山
大岡
大島
大崎
大川
大工
大差
大師
大幅
大戦
大手
大抵
大昔
大晦
大曲
大村
大根
大森
大概
大樹
大橋
大正
大江
大河
大沼
大泉
大洗
大津
大漁
大物
大王
大田
大町
大盛
大石
大社
大神
大祭
大福
大竹
大統
大胆
大腸
大臣
大船
大葉
大衆
大袈
大西
大谷
大豆
大賞
大輔
大通
大道
大野
大量
大金
大門
大間
大関
大阪
大陸
大雨
大雪
大須
大麻
大黒
天下
天丼
天井
天使
天候
天国
天地
天守
天心
天才
天文
天気
天津
天満
天然
天狗
天王
天理
天皇
天神
天空
天竜
天童
天草
天麩
太い
太く
太っ
太り
太る
太一
太宰
太平
太田
太郎
太陽
太鼓
夫人
夫妻
夫婦
失い
失う
失っ
失わ
失態
失敗
失格
失点
失礼
奄美
奇跡
奈々
奈良
奉仕
奉納
奏で
奏者
契約
奢っ
奢り
奨学
奪い
奪う
奪っ
奪わ
奪還
奮発
奮闘
女優
女子
女将
女川
女性
女王
女神
女装
奴隷
好か
好き
好み
好奇
好意
好感
好物
好評
好調
如く
如何
妄想
妊娠
妖怪
妖精
妙高
妥協
妥当
妨害
姉妹
始め
始動
始末
始球
始発
委員
委託
姫路
姿勢
威力
娯楽
婚活
婦人
媒体
嫉妬
嫌い
嫌わ
嫌悪
嬉し
嬉野
子供
子孫
子守
子宮
子猫
字幕
存じ
存分
存在
存知
存続
孝行
季節
孤独
学ば
学び
学ぶ
学べ
学ん
学会
学園
学年
学期
学校
学歴
学生
学科
学童
学習
学者
学芸
学院
宅建
宅配
宇佐
宇和
宇多
宇宙
宇治
宇部
宇都
宇野
守っ
守ら
守り
守る
守れ
守備
守山
守護
守谷
安い
安く
安価
安保
安倍
安全
安城
安堵
安定
安心
安打
安易
安曇
安田
安芸
安藤
安達
安部
安静
完了
完備
完全
完売
完封
完成
完敗
完治
完熟
完璧
完結
完走
完食
完飲
宗教
宗谷
宗隆
官僚
定め
定休
定例
定価
定刻
定員
定年
定時
定期
定点
定番
定着
定義
定食
宜野
宝塚
宝物
宝石
実写
実力
実務
実在
実家
実感
実態
実戦
実施
実況
実物
実現
実用
実績
実習
実行
実装
実証
実話
実質
実践
実車
実際
実験
客室
客層
客席
客観
宣伝
宣言
室内
室温
室蘭
宮古
宮城
宮島
宮崎
宮本
宮沢
宮田
宴会
家事
家具
家内
家出
家庭
家康
家族
家系
家計
家賃
家電
容器
容姿
容易
容疑
容認
容赦
容量
宿泊
宿題
寂し
寄せ
寄っ
寄ら
寄り
寄る
寄れ
寄付
寄席
寄生
密か
密度
密着
富士
富山
富岡
富田
富裕
富豪
寒い
寒く
寒川
寒暖
寒気
寒波
寝よ
寝る
寝れ
寝ろ
寝台
寝坊
寝室
寝屋
寝床
察し
寧ろ
審判
審査
審議
寸前
寺田
対し
対処
対向
対局
対岸
対応
対戦
対抗
対決
対立
対策
対話
対談
対象
対面
寿司
寿命
封印
封筒
封鎖
専属
専念
専用
専門
射撃
将来
将棋
将軍
尊い
尊敬
尊重
尋ね
尋常
導体
導入
小さ
小中
小倉
小僧
小児
小型
小声
小学
小室
小屋
小山
小岩
小島
小川
小平
小指
小杉
小松
小林
小樽
小池
小沢
小泉
小浜
小牧
小物
小田
小町
小笠
小籠
小腹
小西
小説
小諸
小豆
小野
小金
小鉢
小銭
小雨
小鳥
小麦
少々
少し
少な
少女
少子
少年
少数
少量
尚更
就任
就労
就寝
就活
就職
尻尾
尼崎
尽き
尽く
尽力
尾崎
尾張
尾道
居る
居れ
居住
居座
居酒
届い
届か
届き
届く
届け
屋上
屋久
屋内
屋台
屋外
屋敷
屋根
展望
展示
展覧
展開
属性
履い
履か
履き
履く
履修
履歴
山々
山上
山下
山中
山内
山口
山城
山奥
山岡
山崎
山川
山形
山手
山本
山梨
山椒
山田
山荘
山菜
山賊
山道
山間
山陰
山陽
山際
山頂
岐阜
岡山
岡崎
岡本
岡村
岡田
岩下
岩国
岩崎
岩手
岩本
岩田
岩盤
岸本
岸田
島原
島根
島田
崎陽
崩さ
崩し
崩れ
崩壊
嵐山
川上
川口
川島
川崎
川村
川柳
川田
川西
川越
巡っ
巡り
巡る
巡回
巡礼
巣鴨
工事
工作
工具
工場
工夫
工学
工房
工業
工程
工芸
工藤
左上
左下
左側
左右
左手
左折
左派
左翼
左腕
左足
巨乳
巨人
巨大
巫女
差し
差別
巻い
巻き
巻く
巾着
市中
市内
市原
市営
市場
市川
市政
市民
市街
市議
市販
市長
市電
布団
布教
布施
布袋
帆立
希少
希望
帝京
帝国
帝王
師匠
師走
帯広
帰っ
帰ら
帰り
帰る
帰れ
帰ろ
帰国
帰宅
帰省
帰路
帰還
常備
常時
常温
常滑
常磐
常設
常識
常連
常陸
帽子
幅広
幕張
干し
干支
干渉
干物
平井
平和
平地
平均
平塚
平安
平常
平成
平日
平気
平熱
平田
平穏
平等
平野
年々
年の
年上
年下
年中
年代
年内
年初
年収
年始
年度
年数
年末
年玉
年賀
年配
年金
年長
年間
年頃
年齢
幸い
幸せ
幸先
幸福
幸運
幹事
幹線
幹部
幻想
幼い
幼児
幼少
幼稚
幽霊
幾ら
庁舎
広々
広い
広く
広げ
広め
広告
広報
広場
広大
広尾
広島
広瀬
庄内
床屋
序盤
底辺
店主
店内
店名
店員
店舗
店長
店頭
府中
度々
度数
座っ
座ら
座り
座る
座れ
座席
座敷
座長
座間
庭園
庶民
廃墟
廃棄
廃業
廃止
廃線
廃車
廊下
延々
延期
延長
建て
建物
建築
建設
弁天
弁当
弁護
弊害
弊社
式典
引い
引か
引き
引く
引け
引っ
引用
引退
弘前
弟子
弥彦
弥生
弱い
弱く
弱っ
弱点
弱者
張っ
張り
張る
強い
強く
強み
強め
強制
強力
強化
強度
強引
強気
強烈
強盗
強者
強行
強要
強調
強豪
強風
弾い
弾か
弾き
弾く
弾け
弾丸
当た
当て
当事
当分
当初
当地
当局
当店
当方
当日
当時
当然
当番
当社
当落
当選
当面
形式
形態
形成
形状
彦根
彩り
彫刻
影響
彷彿
彷徨
役人
役割
役員
役場
役所
役目
役者
役職
彼女
彼岸
彼方
彼氏
往復
往生
待た
待ち
待っ
待つ
待て
待合
待望
待機
待遇
後々
後ろ
後半
後味
後尾
後悔
後援
後方
後日
後期
後楽
後継
後続
後編
後者
後藤
後輩
後遺
徐々
徒歩
従う
従っ
従事
従兄
従来
従業
得る
得意
得点
徘徊
御免
御前
御堂
御嶽
御座
御所
御殿
御苑
御茶
御飯
復刻
復帰
復旧
復活
復習
復興
復路
循環
微力
微妙
微熱
微笑
徳山
徳島
徳川
徴収
徹夜
徹底
心中
心地
心境
心底
心拍
心理
心臓
心身
心配
心霊
必ず
必勝
必死
必殺
必然
必至
必要
必見
必需
必須
忍び
忍者
忖度
志向
志摩
志望
志村
志賀
忘れ
忘年
忙し
応え
応じ
応募
応援
応用
応答
忠実
快勝
快感
快晴
快活
快速
快適
念願
怒っ
怒ら
怒り
怒る
怒涛
怒鳴
怖い
怖く
思い
思う
思え
思っ
思わ
思想
思案
思考
急い
急が
急ぎ
急げ
急便
急募
急激
急行
急速
急遽
性別
性格
性欲
性癖
性的
性能
怪し
怪我
怪物
怪獣
怪談
恋人
恋愛
恐い
恐る
恐れ
恐ろ
恐怖
恐竜
恐縮
恒例
恥ず
恨み
恩恵
息子
恵み
恵庭
恵方
恵比
恵那
悔い
悔し
悔や
悟空
患者
悩ま
悩み
悩む
悩ん
悪い
悪く
悪化
悪口
悪夢
悪意
悪質
悪魔
悲し
悲劇
悲報
悲惨
悲鳴
悶絶
情け
情勢
情報
情熱
情緒
惑星
惚れ
惣菜
惨敗
想い
想う
想っ
想像
想定
惹か
愉快
意向
意味
意図
意地
意外
意志
意思
意欲
意気
意義
意見
意識
愚か
愚痴
愛お
愛さ
愛し
愛で
愛国
愛好
愛媛
愛嬌
愛子
愛情
愛想
愛犬
愛用
愛着
愛知
愛車
感じ
感動
感度
感心
感性
感情
感想
感慨
感染
感激
感覚
感触
感謝
態度
慌て
慎吾
慎重
慢性
慣れ
慰め
慰霊
慶應
憂鬱
憧れ
憲法
懇親
懲り
懲役
懸命
懸念
懸賞
成し
成っ
成り
成る
成人
成分
成功
成城
成年
成果
成田
成立
成績
成長
我々
我が
我慢
戦い
戦う
戦え
戦っ
戦争
戦利
戦前
戦力
戦国
戦場
戦士
戦後
戦時
戦略
戦艦
戦術
戦車
戦闘
戦隊
戯れ
戴き
戸塚
戸惑
戸田
戸籍
戻し
戻す
戻っ
戻ら
戻り
戻る
戻れ
房総
所々
所在
所存
所属
所得
所持
所有
所沢
所用
所要
所詮
所謂
扇風
手の
手伝
手元
手前
手動
手帳
手当
手放
手数
手本
手段
手水
手法
手稲
手紙
手羽
手術
手袋
手話
手足
手軽
手配
手間
手頃
手順
手首
才能
打た
打ち
打っ
打つ
打て
打席
打撃
打点
打率
打球
打線
打者
払い
払う
払え
払っ
払わ
扱い
扱う
扱っ
扱わ
批判
承っ
承り
承知
承認
技能
技術
把握
抑え
抑制
抑止
投げ
投下
投入
投手
投球
投票
投稿
投資
抗原
抗議
折っ
折り
折れ
折角
抜い
抜か
抜き
抜く
抜け
抜群
披露
抱い
抱え
抱き
抵抗
抹消
抹茶
押さ
押し
押す
押せ
押忍
抽出
抽選
担い
担任
担当
拉致
拍子
拍手
拒否
拘り
拘束
招い
招き
招待
拝み
拝め
拝聴
拝見
拠点
拡大
拡張
拡散
拭い
拭き
拷問
拾い
拾う
拾っ
持た
持ち
持っ
持つ
持て
持参
持病
持続
指し
指先
指名
指定
指宿
指導
指揮
指摘
指数
指示
指輪
挑み
挑む
挑ん
挑戦
挙げ
挙動
挙句
挟ま
挟む
挟ん
挨拶
挫折
振っ
振ら
振り
振る
振れ
振動
振替
振興
振袖
振込
挿入
捉え
捏造
捕手
捕獲
捗る
捜査
捜索
捧げ
捨て
捨離
据え
掃除
授業
排出
排気
排水
排除
掘っ
掘り
掛け
掛川
採れ
採点
採用
採血
探さ
探し
探す
探せ
探偵
探検
探索
探訪
接し
接客
接待
接戦
接点
接着
接種
接続
接触
接近
接骨
控え
控除
推し
推す
推奨
推定
推測
推薦
推進
措置
掲げ
掲示
掲載
掴み
掴む
掴め
掴ん
掻き
揃い
揃う
揃え
揃っ
揉み
揉め
描い
描か
描き
描く
描け
描写
提供
提出
提携
提案
提灯
提示
揚げ
換気
換算
握っ
握り
握る
握手
援助
援護
揺さ
揺ら
揺れ
損し
損ね
損失
損害
搬入
搬送
搭乗
搭載
携帯
搾り
搾取
摂っ
摂取
撃た
撃ち
撃っ
撃沈
撃破
撒い
撒き
撤去
撤収
撤回
撤廃
撤退
撫で
撮っ
撮ら
撮り
撮る
撮れ
撮影
擁護
操作
擦り
支え
支出
支店
支度
支払
支持
支援
支給
支那
支部
支配
支障
改め
改修
改名
改善
改定
改悪
改憲
改札
改正
改良
改装
改造
改革
攻め
攻撃
攻略
放っ
放り
放出
放射
放映
放棄
放流
放浪
放置
放課
放送
放題
政党
政府
政権
政治
政界
政策
故人
故郷
故障
敏感
救い
救う
救っ
救わ
救出
救助
救急
救済
敗北
敗戦
敗退
教え
教会
教員
教団
教室
教師
教授
教材
教祖
教科
教習
教育
教訓
教養
散々
散っ
散ら
散り
散る
散歩
散策
散財
散髪
敦賀
敬意
敬老
敬遠
数々
数え
数値
数十
数千
数多
数字
数学
数百
数量
整い
整え
整っ
整体
整備
整形
整理
整骨
敵わ
敷い
敷地
文京
文具
文化
文句
文字
文学
文庫
文明
文春
文書
文章
文雄
斉藤
斎藤
料理
料金
斜め
斜面
斬新
断っ
断ら
断り
断る
断固
断念
断水
断然
断言
断酒
断食
新た
新井
新人
新作
新入
新刊
新卒
新品
新地
新型
新城
新報
新婚
新宮
新宿
新居
新年
新庄
新店
新日
新春
新曲
新横
新橋
新潟
新生
新田
新町
新発
新築
新米
新緑
新聞
新興
新規
新設
新調
新車
新選
新鮮
方々
方向
方式
方法
方言
方針
方面
施工
施策
施行
施術
施設
旅人
旅先
旅客
旅程
旅行
旅館
既に
既存
日々
日の
日中
日付
日傘
日光
日刊
日勤
日吉
日向
日和
日報
日大
日常
日数
日時
日曜
日本
日比
日没
日清
日産
日田
日程
日立
日米
日経
日記
日課
日野
日銀
日間
日陰
日韓
日頃
日高
旦那
旨い
旨し
旨み
旨味
早々
早い
早く
早め
早出
早寝
早川
早急
早朝
早期
早番
早目
早苗
早退
早速
旭川
昆布
昆虫
昇天
昇格
明け
明る
明太
明日
明朝
明治
明石
明確
明神
明菜
易い
易く
星座
星空
星野
映え
映し
映っ
映ら
映り
映る
映像
映画
春日
春菊
春雨
昨今
昨夜
昨年
昨日
昨晩
昭和
是非
昼前
昼夜
昼寝
昼間
昼食
昼飯
時々
時世
時事
時代
時刻
時差
時折
時期
時点
時短
時空
時給
時計
時速
時間
晋三
晒さ
晒し
晒す
晩酌
晩飯
晩餐
普及
普段
普通
景品
景気
景色
景観
晴れ
晴天
暇人
暑い
暑く
暖か
暖房
暗い
暗く
暗号
暗殺
暗闇
暗黒
暫く
暫定
暮れ
暴れ
暴力
暴落
暴行
暴言
暴走
暴露
暴風
暴食
曇っ
曇り
曇天
曖昧
曜日
曰く
曲げ
曲名
曲目
更に
更新
書い
書か
書き
書く
書け
書士
書店
書籍
書道
書類
替え
替玉
最も
最上
最中
最低
最初
最前
最善
最多
最大
最寄
最小
最強
最後
最悪
最新
最早
最期
最短
最終
最近
最速
最適
最長
最高
月刊
月曜
月末
月見
月間
月額
有っ
有り
有る
有れ
有事
有休
有利
有力
有効
有吉
有名
有志
有料
有明
有楽
有権
有機
有無
有田
有給
有線
有能
有馬
服用
服装
服部
朗報
朗読
望み
望む
望ん
望月
望遠
朝一
朝倉
朝市
朝方
朝日
朝晩
朝練
朝霞
朝食
朝飯
朝鮮
期待
期日
期間
期限
木下
木場
木星
木曜
木更
木曽
木村
木犀
木造
未だ
未定
未来
未満
未熟
未知
未遂
末広
末期
本丸
本人
本体
本名
本命
本土
本堂
本場
本塁
本宮
本家
本尊
本屋
本山
本島
本州
本年
本庄
本店
本当
本拠
本数
本日
本来
本格
本棚
本業
本気
本物
本田
本町
本番
本社
本線
本編
本能
本舗
本質
本部
本郷
本間
本音
本願
本館
札幌
朱印
杉並
杉山
杉本
杉田
杏仁
材料
村上
村山
村田
条件
条例
条約
条項
来い
来る
来れ
来ん
来場
来季
来客
来年
来店
来日
来春
来月
来訪
来週
東上
東京
東側
東北
東南
東口
東名
東大
東山
東急
東方
東映
東松
東横
東武
東洋
東海
東芝
東西
東部
東雲
松下
松井
松原
松坂
松尾
松山
松岡
松島
松川
松戸
松本
松永
松江
松浦
松田
松竹
松茸
松葉
松阪
板橋
林檎
林道
枚数
枚方
果た
果て
果実
果汁
果物
枝豆
枯れ
柏崎
柏木
某所
柑橘
染み
染め
柔ら
柔術
柔軟
柔道
柚子
柳田
柴犬
柴田
査定
栃木
栄光
栄養
栗原
栗山
栗林
校舎
校長
株主
株価
株式
根室
根尾
根性
根拠
根本
格別
格好
格安
格差
格段
格闘
栽培
案の
案件
案内
案外
桐生
桐蔭
桑名
桑田
桜井
桜島
桜木
桜花
桟橋
梅田
梅酒
梅雨
梗塞
梱包
森下
森保
森友
森山
森林
森田
椅子
植え
植木
植物
椎名
椎茸
検定
検察
検査
検索
検討
検診
検証
業務
業界
業種
業者
極み
極め
極上
極力
極太
極寒
極楽
極端
楽し
楽勝
楽器
楽団
楽園
楽天
楽屋
楽曲
楽章
楽譜
概ね
概念
概要
榛名
構い
構え
構っ
構わ
構内
構図
構想
構成
構築
構造
様々
様子
樋口
標準
標識
標高
模型
模様
模索
権利
権力
権田
権限
横丁
横山
横川
横手
横断
横浜
横田
横目
横綱
樹脂
橋下
橋本
機会
機体
機内
機動
機器
機嫌
機材
機械
機構
機種
機能
機関
橿原
櫻井
欠け
欠品
欠席
欠点
欠航
次々
次い
次ぐ
次元
次回
次女
次期
次男
次第
次節
次郎
欧州
欧米
欲し
欲望
欲求
歌い
歌う
歌え
歌っ
歌わ
歌劇
歌唱
歌声
歌手
歌舞
歌詞
歌謡
歓喜
歓声
歓迎
止み
止む
止め
止ん
正に
正体
正午
正常
正座
正式
正当
正月
正気
正直
正確
正義
正規
正解
正論
正面
此の
此れ
此処
此方
武器
武士
武将
武田
武者
武蔵
武藤
武装
武道
武雄
歩い
歩か
歩き
歩く
歩け
歩み
歩ん
歩数
歩行
歩道
歪み
歪ん
歯科
歴代
歴史
死な
死に
死ぬ
死ね
死ん
死亡
死体
死刑
死去
死者
殆ど
残さ
残し
残す
残っ
残ら
残り
残る
残念
残暑
残業
残留
残酷
残高
殴っ
殴ら
殴り
段々
段差
段落
段階
殺さ
殺し
殺す
殺人
殺到
殺害
母校
母親
毎回
毎年
毎度
毎日
毎晩
毎月
毎朝
毎週
比べ
比例
比率
比較
毛布
毛穴
民主
民家
民宿
民度
民意
民放
民族
民間
気づ
気の
気付
気仙
気候
気分
気力
気合
気味
気圧
気楽
気温
気球
気筒
気絶
気象
気質
気軽
気配
気長
水上
水中
水分
水平
水戸
水族
水星
水晶
水曜
水木
水槽
水没
水沢
水泳
水温
水準
水産
水着
水筒
水素
水色
水道
水野
水面
氷川
氷点
氷見
永く
永久
永井
永吉
永田
永遠
求む
求め
求人
汎用
汚い
汚し
汚れ
汚染
江ノ
江別
江口
江戸
江東
池上
池田
池袋
決め
決勝
決定
決意
決戦
決断
決済
決着
決算
決行
沁み
沈む
沈ん
沈黙
沖縄
沙汰
沢山
河内
河原
河口
河合
河川
河村
河津
河野
沸い
沸騰
油断
治し
治す
治っ
治ら
治り
治る
治安
治療
治郎
沼津
沼田
沿い
沿っ
沿線
法事
法人
法則
法務
法律
法的
法要
泡盛
波動
泣い
泣か
泣き
泣く
泣け
泥棒
泥酔
注い
注ぎ
注入
注射
注意
注文
注目
泳い
泳ぎ
泳ぐ
洋服
洋楽
洋食
洒落
洗い
洗う
洗っ
洗わ
洗剤
洗浄
洗濯
洗脳
洗車
洗面
洞爺
洞窟
津々
津山
津島
津波
津田
津軽
洪水
活き
活力
活動
活性
活気
活用
活発
活躍
派手
派遣
派閥
流さ
流し
流す
流れ
流出
流山
流星
流氷
流用
流石
流行
流通
浄化
浄土
浅い
浅草
浅野
浅間
浜名
浜松
浜田
浦和
浦安
浩二
浪漫
浮い
浮か
浮き
浮上
浮気
浴び
浴場
浴室
浴槽
浴衣
海上
海外
海岸
海峡
海水
海洋
海浜
海老
海苔
海賊
海軍
海辺
海道
海鮮
浸っ
浸り
浸水
浸透
消え
消さ
消し
消す
消化
消毒
消滅
消耗
消費
消防
涙目
涙腺
液体
液晶
涼し
淀川
淋鶏
淡々
淡い
淡路
淡麗
深い
深く
深み
深め
深刻
深夜
深川
深海
深谷
混ざ
混ぜ
混み
混む
混ん
混乱
混雑
淹れ
添え
添付
添加
清宮
清掃
清楚
清水
清潔
済ま
済み
済む
済ん
渋い
渋滞
渋谷
渓谷
減っ
減ら
減り
減る
減少
減税
減速
減量
渡さ
渡し
渡す
渡っ
渡り
渡る
渡辺
渡邉
温か
温め
温存
温度
温暖
温泉
温玉
測っ
測定
渾身
湖西
湘南
湧い
湧か
湧き
湧く
湯島
湯本
湯沢
湯浅
湯船
湾岸
湿布
湿度
湿気
満々
満た
満ち
満員
満喫
満塁
満天
満席
満月
満点
満腹
満足
満車
満載
満開
源泉
源田
準々
準備
溜め
溢れ
溶け
溶接
溺れ
滅び
滅多
滅茶
滋賀
滑っ
滑り
滑る
滑走
滝川
滝沢
滞在
滲み
漁師
漁港
漂う
漂っ
漏れ
演じ
演出
演劇
演奏
演技
演歌
演目
演習
演者
演舞
演説
漕い
漢字
漢方
漫才
漫画
漬け
漬物
潜っ
潜り
潜入
潜在
潜水
潰さ
潰し
潰す
潰れ
澄ん
激し
激励
激務
激安
激怒
激戦
激減
激痛
激辛
濃い
濃く
濃厚
濃度
濡れ
濾過
瀬戸
火事
火傷
火力
火山
火星
火曜
火災
灯り
灯台
灯油
灼熱
災害
炊い
炊き
炊飯
炎上
炎天
炎症
炒め
炒飯
炙り
炭水
炭火
炭酸
炸裂
点数
点検
点滴
点灯
為替
烏龍
焙煎
焚き
無い
無き
無く
無さ
無し
無事
無二
無人
無休
無償
無効
無印
無双
無念
無性
無敵
無料
無断
無理
無用
無知
無線
無縁
無職
無能
無茶
無視
無言
無謀
無量
無銭
無限
無難
無音
無駄
焦げ
焦っ
焦ら
焦り
焦る
焦点
然り
焼い
焼か
焼き
焼く
焼け
焼売
焼津
焼肉
焼豚
焼酎
焼鳥
煎餅
煙草
照り
照れ
照明
煮卵
煮干
煮物
煽っ
煽ら
煽り
煽る
熊本
熊谷
熊野
熟成
熟睡
熱々
熱い
熱く
熱中
熱唱
熱帯
熱心
熱気
熱波
熱海
熱湯
熱燗
熱狂
熱田
熱量
燃え
燃料
燃焼
燃費
燻製
爆弾
爆死
爆発
爆睡
爆破
爆笑
爆走
爆音
爆風
爬虫
父親
爽快
片側
片山
片手
片方
片道
片隅
牛丼
牛久
牛乳
牛肉
牡丹
牡蠣
牧場
牧野
物事
物件
物価
物凄
物欲
物流
物理
物産
物語
物販
物資
物質
特に
特上
特価
特典
特別
特化
特売
特大
特定
特徴
特急
特性
特撮
特攻
特有
特権
特殊
特産
特番
特盛
特製
特設
特選
特集
牽引
犠牲
犬山
犯し
犯人
犯罪
状態
状況
狂い
狂う
狂っ
狂気
狙い
狙う
狙っ
狙わ
狩り
独り
独占
独特
独立
独自
独裁
独身
狭い
狭く
狭山
猛暑
猛烈
猛者
猪木
猪苗
献立
献花
献血
献金
獅子
獲っ
獲得
玄米
玄関
玉子
玉川
玉木
玉葱
王国
王子
王将
王者
王道
玩具
玲奈
珈琲
現れ
現代
現像
現在
現地
現場
現実
現役
現物
現状
現職
現行
現象
現金
球団
球場
理事
理屈
理念
理性
理想
理由
理系
理解
理論
琉球
琥珀
琵琶
瑞穂
瑠璃
環境
環状
甘い
甘え
甘く
甘み
甘め
甘口
甘味
甘辛
甘酒
甘酸
生え
生き
生じ
生み
生前
生協
生卵
生命
生地
生姜
生存
生徒
生憎
生成
生活
生涯
生物
生理
生産
生田
生誕
生駒
産み
産ん
産地
産後
産業
産経
産駒
用い
用事
用心
用意
用語
用途
用達
田中
田原
田口
田園
田村
田町
田舎
田辺
由伸
由来
由紀
甲子
甲州
甲府
甲斐
申し
申告
申請
申込
男前
男女
男子
男性
男鹿
町内
町田
画伯
画像
画家
画質
画面
界隈
留め
留学
留守
留萌
略し
番台
番号
番外
番手
番組
番線
番長
異動
異常
異性
異様
異論
疑い
疑う
疑っ
疑わ
疑問
疑惑
疲れ
疲労
疲弊
疾患
疾走
病み
病ん
病棟
病気
病院
症候
症状
痒い
痒く
痛い
痛く
痛み
痛む
痛め
痛感
痛風
痩せ
痺れ
療法
療養
癒さ
癒し
癒着
発し
発令
発作
発信
発券
発動
発売
発射
発展
発想
発掘
発揮
発散
発泡
発注
発熱
発狂
発生
発症
発祥
発行
発表
発見
発覚
発言
発車
発送
発進
発達
発酵
発電
発音
登っ
登り
登る
登れ
登別
登場
登壇
登山
登板
登校
登録
登頂
白い
白く
白井
白子
白山
白川
白桃
白樺
白河
白浜
白湯
白玉
白目
白石
白米
白菜
白身
白金
白飯
白馬
白髪
白鳥
白黒
百合
百貨
的中
的確
皆無
皇后
皇室
皇居
皇帝
皮肉
皮膚
盆栽
益々
益田
盗ま
盗ん
盗塁
盗撮
盗難
盛っ
盛り
盛ん
盛大
盛岡
盛況
監修
監査
監督
監視
目の
目処
目前
目印
目安
目指
目撃
目標
目玉
目白
目的
目眩
目線
目薬
目覚
目黒
直ぐ
直し
直す
直っ
直人
直前
直営
直売
直後
直感
直接
直撃
直樹
直筆
直結
直線
直行
直近
直送
直通
相互
相場
相対
相席
相当
相応
相性
相手
相撲
相方
相棒
相模
相続
相談
相鉄
相馬
眉毛
看板
看護
県内
県境
県外
県庁
県民
県立
県道
真っ
真ん
真似
真冬
真剣
真夏
真実
真摯
真横
真珠
真理
真田
真相
真空
真逆
真顔
真鯛
眠い
眠く
眠っ
眠り
眠る
眠れ
眠剤
眠気
眺め
眼福
眼科
眼鏡
着々
着い
着き
着く
着け
着せ
着る
着れ
着信
着地
着実
着席
着弾
着物
着用
着陸
睡眠
睡魔
瞑想
瞬殺
瞬間
矛盾
矢場
矢沢
矢野
知っ
知ら
知り
知る
知れ
知事
知人
知名
知多
知床
知性
知恵
知的
知能
知識
短い
短く
短期
短歌
短編
短縮
矯正
石井
石原
石垣
石山
石川
石巻
石橋
石油
石狩
石田
石神
石鹸
砂利
砂浜
砂漠
砂糖
研修
研究
破っ
破れ
破壊
破損
破格
破産
破綻
破裂
硫黄
硬い
硬く
硬め
確か
確保
確信
確定
確実
確率
確立
確認
磐梯
磐田
磨い
磨き
磨く
示さ
示し
示す
礼儀
社交
社会
社内
社員
社外
社民
社畜
社長
祇園
祈っ
祈り
祈る
祈念
祈祷
祈願
祓い
祖母
祖父
祝い
祝う
祝っ
祝日
祝杯
祝福
神保
神奈
神宮
神戸
神楽
神田
神社
神秘
神経
神話
神谷
神輿
祭り
祭典
禁断
禁止
禁煙
禁物
禁酒
福井
福山
福岡
福島
福永
福田
福知
福祉
福神
福袋
秀吉
秀樹
秀逸
私服
私物
私的
私立
秋元
秋冬
秋季
秋山
秋田
秋葉
科学
科目
秘境
秘密
秘書
秘訣
秦野
秩父
称号
移し
移っ
移り
移住
移動
移植
移民
移籍
移行
移転
程々
程度
税務
税理
税込
税金
稚内
種目
種類
稲垣
稲城
稲田
稲荷
稲葉
稼い
稼ぎ
稼ぐ
稼げ
稼働
稽古
穂高
積み
積む
積め
積ん
積極
積載
積雪
穐楽
穴場
穴子
究極
空い
空か
空き
空く
空け
空中
空席
空手
空気
空港
空腹
空調
空間
突き
突っ
突入
突如
突撃
突然
突発
突破
窓口
立た
立ち
立っ
立つ
立て
立体
立地
立場
立山
立川
立憲
立春
立派
立花
竜王
童貞
端末
競争
競技
競艇
競走
競輪
競馬
竹中
竹内
竹島
竹田
笑い
笑う
笑え
笑っ
笑み
笑わ
笑点
笑顔
笠間
筆頭
等々
等分
等身
筋力
筋肉
筐体
筑波
筑紫
答え
答弁
箇所
箕面
管理
箱根
節分
節句
節目
節約
節電
範囲
築地
篠原
簡単
簡易
米原
米国
米子
米沢
米粉
米軍
粗末
粘っ
粘り
精度
精神
精算
精進
糖分
糖尿
糖質
糸井
糸島
糸魚
系列
系統
紀伊
紀行
約束
紅白
紅茶
紅葉
納め
納品
納得
納期
納税
納豆
納車
純正
純米
純粋
紛ら
紛れ
紛失
素人
素敵
素朴
素材
素直
素顔
素麺
紫外
累計
細い
細か
細く
細川
細工
細胞
紳士
紹介
終え
終わ
終了
終始
終戦
終日
終演
終点
終盤
終電
組ま
組み
組む
組ん
組合
組織
組長
経ち
経っ
経つ
経営
経歴
経済
経由
経緯
経費
経路
経過
経験
結び
結ぶ
結ん
結婚
結局
結成
結晶
結末
結束
結果
結構
結論
絞っ
絞り
絡ま
絡み
絡む
絡め
絡ん
給与
給仕
給付
給料
給水
給油
給湯
給食
統一
統合
統計
絵師
絵本
絵柄
絵画
絶え
絶叫
絶品
絶好
絶妙
絶対
絶景
絶望
絶滅
絶賛
継承
継続
続々
続い
続か
続き
続く
続け
続出
続編
維持
維新
網走
綺麗
綾瀬
緊張
緊急
総会
総務
総合
総武
総理
総裁
総額
緑地
緑色
緑茶
線路
線香
締め
締切
編み
編成
編集
緩い
緩く
緩め
緩ん
緩和
練り
練習
練馬
縁日
縁起
縄文
縛ら
縛り
縫い
縮れ
縮小
繁忙
繁殖
繁盛
繁華
繊細
繊維
繋い
繋が
繋ぎ
繋ぐ
繋げ
織り
織田
繰り
缶詰
罪悪
置い
置か
置き
置く
置け
罰金
署名
罹患
羊羹
美し
美人
美味
美咲
美女
美容
美月
美濃
美瑛
美穂
美紀
美肌
美術
美里
群れ
群馬
義務
義母
義父
義理
羽根
羽生
羽田
羽目
羽織
翌日
翌朝
習い
習っ
習得
習慣
習近
翔太
翔平
翻訳
老い
老け
老人
老化
老害
老後
老眼
老舗
老若
考え
考察
考慮
耐え
耐久
耐性
耳鼻
聖人
聖光
聖地
聖子
聖書
聞い
聞か
聞き
聞く
聞け
聞こ
聴い
聴か
聴き
聴く
聴け
聴こ
職人
職務
職員
職場
職業
職種
肉体
肉厚
肉屋
肉汁
肉球
肉眼
肉食
肌寒
肝心
肝臓
股間
肥料
肩甲
肯定
育ち
育っ
育つ
育て
育休
育児
育成
育英
肺炎
胃腸
胃袋
背中
背後
背徳
背景
背筋
背脂
背負
胡散
胡椒
胡麻
能代
能力
能登
脂肪
脂質
脅し
脅威
脅迫
脚本
脱い
脱ぎ
脱出
脱力
脱帽
脱毛
脱水
脱衣
脱走
脳内
腐っ
腫れ
腰痛
腹痛
腹筋
膨ら
臨時
臨海
自ら
自主
自体
自作
自信
自公
自分
自前
自力
自動
自営
自国
自宅
自家
自己
自律
自得
自愛
自慢
自業
自殺
自民
自治
自炊
自然
自爆
自由
自社
自称
自立
自粛
自腹
自衛
自覚
自販
自走
自身
自転
自重
臭い
臭く
臭み
至っ
至ら
至り
至る
至極
至福
至近
至高
致し
致命
興味
興奮
興行
舐め
舗装
舞い
舞う
舞っ
舞台
舞子
舞茸
舞鶴
航空
船橋
船長
艦隊
良い
良き
良く
良さ
良し
良品
良好
良心
色々
色味
色気
色紙
芋煮
芝居
芝生
芦屋
花咲
花園
花壇
花嫁
花屋
花巻
花月
花束
花火
花畑
花粉
花見
花道
芸人
芸能
芸術
苗字
若い
若き
若く
若干
若手
若松
若林
若者
若葉
苦い
苦し
苦労
苦味
苦情
苦戦
苦手
苦痛
苦笑
苫小
英国
英語
英雄
茂木
茄子
茨城
茨木
茶会
茶屋
茶番
茶碗
茶色
茹で
草加
草木
草津
荒れ
荒井
荒川
荒木
荒野
荷物
荻窪
菅原
菅野
菊池
菓子
菜々
菜園
華麗
萌え
萎え
萩生
落ち
落と
落下
落合
落札
落語
落選
葉山
葉月
著作
著名
著者
葛藤
葛西
葛飾
葡萄
葬儀
葬式
蒙古
蒲田
蒲郡
蒸し
蒸気
蒸留
蓄積
蓬莱
蓮根
蔓延
蔵王
蕎麦
薄い
薄く
薄っ
薄め
薔薇
薦め
薩摩
薬剤
薬味
薬局
薬師
薬膳
藤井
藤原
藤岡
藤崎
藤本
藤枝
藤沢
藤浪
藤田
虎ノ
虐待
虐殺
虚無
虫歯
蛇口
蛍光
蜂蜜
蜘蛛
融合
融資
血圧
血液
血管
血糖
衆議
衆院
行い
行う
行か
行き
行く
行け
行こ
行っ
行わ
行事
行使
行先
行列
行動
行政
行方
行為
行程
行進
術後
街中
街宣
街道
街頭
衛星
衛生
衝動
衝撃
衝突
衣装
表し
表す
表彰
表情
表明
表現
表示
表紙
表記
表面
衰え
衰退
被せ
被っ
被ら
被り
被る
被写
被害
被災
裁判
装備
装着
装置
装飾
裏側
裏山
補修
補償
補充
補助
補強
補正
補給
補足
製作
製品
製菓
製薬
製造
製麺
複勝
複合
複数
複雑
褒め
褒美
襲っ
襲わ
襲撃
襲来
西側
西友
西口
西宮
西尾
西山
西川
西成
西新
西村
西条
西武
西洋
西田
西部
西野
西鉄
要ら
要り
要る
要人
要件
要因
要望
要求
要素
要請
覆面
見え
見し
見せ
見つ
見よ
見る
見れ
見ろ
見下
見事
見失
見学
見守
見届
見当
見据
見本
見栄
見極
見渡
見物
見知
見積
見習
見解
見送
見逃
見頃
規制
規則
規定
規格
規模
視力
視察
視点
視界
視線
視聴
視覚
視野
覗い
覗き
覚え
覚め
覚悟
覚醒
親分
親切
親友
親子
親戚
親指
親方
親族
親権
親父
親近
観る
観れ
観光
観劇
観客
観察
観戦
観測
観点
観覧
観賞
観音
角度
角煮
角田
解き
解け
解っ
解ら
解り
解る
解体
解像
解凍
解放
解散
解明
解析
解決
解消
解熱
解禁
解答
解約
解説
解釈
解除
解雇
触っ
触ら
触り
触る
触れ
言い
言う
言え
言っ
言わ
言動
言及
言葉
言語
言論
訂正
訃報
計測
計画
計算
討論
訓練
託し
記事
記入
記念
記憶
記者
記載
記録
訪ね
訪れ
訪問
設け
設備
設営
設定
設立
設置
設計
許さ
許し
許す
許せ
許可
許容
訴え
訴訟
診察
診断
診療
証券
証拠
証明
証言
詐欺
評価
評判
評論
詣り
試さ
試し
試す
試み
試乗
試作
試合
試着
試練
試行
試走
試食
試飲
試験
詩織
詫び
詰め
詰ん
話さ
話し
話す
話せ
話題
該当
詳細
誇り
誇る
誉め
認め
認定
認知
認証
認識
誓い
誕生
誘い
誘う
誘っ
誘わ
誘導
誘惑
誘致
語っ
語ら
語り
語る
語れ
語彙
誠実
誠意
誤っ
誤り
誤字
誤差
誤解
誤魔
説得
説教
説明
読ま
読み
読む
読め
読ん
読了
読売
読書
読者
課税
課金
課長
課題
誹謗
調べ
調味
調和
調子
調布
調教
調整
調査
調理
調節
調達
談義
請求
諏訪
論外
論文
論点
論理
諦め
諫早
諭吉
諸々
諸国
諸島
謙虚
講師
講座
講演
講義
講習
謝っ
謝ら
謝り
謝る
謝罪
謹慎
譜面
警備
警告
警報
警官
警察
警戒
警視
議事
議会
議員
議席
議論
議長
譲っ
譲り
譲渡
讃岐
谷口
谷川
豆乳
豆腐
豊か
豊中
豊富
豊岡
豊島
豊川
豊橋
豊洲
豊田
豚丼
豚汁
豚肉
豚骨
象徴
豪快
豪華
豪雨
負け
負傷
負担
負荷
財務
財団
財布
財政
財源
財産
貢献
貧乏
貧困
貨物
販売
貫禄
貫通
責め
責任
貯め
貯金
貰い
貰う
貰え
貰っ
貰わ
貴女
貴方
貴族
貴様
貴重
買い
買う
買え
買っ
買わ
買収
買取
買物
貸し
貸切
費用
貼っ
貼ら
貼り
貼る
貿易
賃貸
賃金
賄い
資料
資本
資材
資格
資源
資産
資金
賛同
賛否
賛成
賞味
賞品
賞金
賠償
賢い
質問
質感
質疑
賭け
購入
贅沢
贈り
贈る
贔屓
赤い
赤く
赤坂
赤城
赤字
赤旗
赤星
赤福
赤穂
赤羽
赤色
赤身
赤飯
走っ
走ら
走り
走る
走れ
走行
赴任
起き
起こ
起動
起床
起業
起点
起用
起訴
超え
超人
超絶
超過
越え
越し
越前
越後
越谷
趣味
足し
足ら
足り
足元
足利
足場
足柄
足湯
足立
足腰
足跡
足首
距離
跡地
路上
路地
路線
路面
跳ね
踊っ
踊り
踊る
踏ま
踏み
踏む
踏ん
踏切
蹴っ
蹴り
蹴る
躊躇
躍動
身の
身体
身内
身分
身延
身近
身長
車両
車中
車体
車内
車屋
車庫
車掌
車検
車種
車窓
車線
車輌
車道
車間
車高
軌道
軍事
軍団
軍拡
軍艦
軟骨
転け
転ん
転倒
転勤
転売
転換
転生
転職
転落
軽い
軽く
軽め
軽減
軽症
軽量
軽食
載せ
載っ
輝い
輝き
輝く
輸入
輸出
輸送
辛い
辛く
辛口
辛味
辛子
辛抱
辞め
辞任
辞職
辞退
辰哉
辰巳
農園
農場
農家
農業
農薬
辺り
辻元
込み
込め
込ん
辿り
迂回
迎え
迎撃
近々
近い
近く
近づ
近代
近場
近年
近所
近日
近江
近況
近畿
近藤
近辺
近郊
近鉄
近隣
返さ
返し
返す
返せ
返っ
返り
返事
返信
返却
返済
返礼
返答
返納
返還
返金
迫っ
迫る
迫力
述べ
迷い
迷う
迷っ
迷わ
迷子
迷惑
追い
追う
追っ
追わ
追伸
追加
追及
追悼
追放
追求
追記
退勤
退団
退場
退屈
退散
退治
退社
退職
退院
送っ
送ら
送り
送る
送れ
送信
送料
送迎
逃げ
逃し
逃す
逃れ
逃亡
逃走
逃避
逆光
逆走
逆転
透け
透明
透析
途中
途端
逗子
這い
通い
通う
通し
通じ
通す
通っ
通ら
通り
通る
通れ
通信
通勤
通報
通学
通常
通用
通知
通称
通算
通行
通訳
通話
通貨
通販
通路
通過
通院
逝き
逝く
逝っ
速い
速く
速報
速度
速攻
造り
造形
逢い
逢え
連れ
連中
連休
連動
連勝
連合
連呼
連想
連戦
連打
連投
連携
連敗
連日
連番
連発
連盟
連結
連絡
連続
連覇
連載
連鎖
逮捕
週刊
週末
週間
進ま
進み
進む
進め
進ん
進出
進化
進学
進捗
進撃
進歩
進行
進路
逸品
遂に
遅い
遅く
遅め
遅れ
遅刻
遅延
遅番
遊ば
遊び
遊ぶ
遊べ
遊ん
遊具
遊園
遊戯
遊歩
運ば
運び
運ぶ
運ん
運休
運動
運命
運営
運気
運用
運行
運賃
運転
運輸
運送
遍路
過ぎ
過ご
過剰
過去
過多
過激
過疎
過程
過酷
道中
道具
道場
道後
道徳
道志
道東
道楽
道民
道端
道路
道頓
達し
達也
達人
達成
達郎
違い
違う
違え
違っ
違反
違和
違法
遠い
遠く
遠出
遠征
遠慮
遠方
遠目
遠藤
遠足
遠野
遠隔
遥か
適切
適合
適度
適当
適応
適正
適用
遭っ
遭遇
遭難
選ば
選び
選ぶ
選べ
選ん
選出
選定
選手
選抜
選択
選挙
選曲
選考
遺伝
遺憾
遺族
遺産
遺跡
避け
避難
還元
還暦
那珂
那覇
那須
邪魔
郊外
郡山
部下
部位
部分
部品
部屋
部活
部署
部長
部門
部隊
郵便
郵送
郷土
都会
都内
都合
都営
都城
都市
都庁
都度
都心
都民
都立
配っ
配り
配る
配信
配分
配合
配布
配当
配慮
配管
配線
配置
配車
配送
配達
酒井
酒場
酒屋
酒店
酒田
酒粕
酒蔵
酒造
酔い
酔う
酔っ
酢豚
酵母
酷い
酷く
酷暑
酸化
酸味
酸素
醍醐
醤油
醸し
醸造
采配
里山
里芋
里親
重い
重く
重ね
重み
重力
重大
重宝
重機
重症
重要
重視
重賞
重量
野党
野口
野外
野手
野暮
野村
野毛
野沢
野球
野生
野田
野良
野菜
野郎
野鳥
量産
金利
金剛
金子
金属
金山
金時
金曜
金欠
金沢
金田
金目
金色
金融
金運
金銭
金額
金髪
金魚
釜石
釣っ
釣ら
釣り
釣る
釣れ
釣具
釣果
釧路
鈴木
鈴鹿
鉄分
鉄板
鉄砲
鉄道
鉛筆
銀座
銀杏
銀河
銀行
銃撃
銘柄
銚子
銭湯
鋭い
錆び
錦糸
錯覚
錯誤
録画
録音
鍛え
鍼灸
鎌倉
鎌田
鎮座
鑑定
鑑賞
長い
長く
長め
長友
長女
長官
長寿
長尾
長居
長岡
長島
長崎
長年
長引
長期
長浜
長田
長男
長良
長蛇
長袖
長谷
長野
長靴
門前
門司
門真
閉じ
閉め
閉店
閉鎖
閉館
開い
開か
開き
開く
開け
開会
開催
開場
開始
開封
開局
開幕
開店
開拓
開放
開栓
開業
開演
開発
開示
開花
開設
開通
開運
開館
閑散
間に
間接
間近
間違
間隔
間際
関し
関与
関係
関内
関心
関東
関空
関節
関西
関越
関連
関門
閣議
閲覧
闘い
闘う
闘っ
阪急
阪神
防ぐ
防寒
防府
防御
防止
防水
防災
防犯
防衛
阻止
阿佐
阿呆
阿波
阿蘇
阿部
降っ
降ら
降り
降る
降格
降水
降臨
降雪
限っ
限ら
限り
限る
限定
限度
限界
陛下
院長
除い
除く
除去
除名
除外
除雪
陰性
陰謀
陶器
陶芸
陸上
陽子
陽性
陽気
隅田
隊員
隊長
階段
階級
随分
随時
隔離
隙間
障害
隠さ
隠し
隠す
隠れ
隠蔽
隣り
隣接
隼人
雄大
雅治
集い
集め
集中
集会
集合
集団
集客
集結
集落
雇用
雑炊
雑煮
雑草
雑誌
雑談
雑貨
雑魚
離さ
離し
離せ
離れ
離婚
離島
離脱
離陸
難い
難し
難儀
難易
難民
難波
難点
雨天
雨宿
雨雲
雨風
雪国
雪山
雪道
雰囲
雲丹
雲仙
雲海
雷雨
電力
電動
電化
電子
電柱
電機
電気
電池
電波
電源
電磁
電話
電車
電通
電鉄
需要
震え
震度
震源
震災
霊感
霧島
露出
露天
青い
青く
青山
青島
青年
青春
青木
青柳
青梅
青森
青空
青色
青葉
靖国
静か
静岡
非常
非難
面会
面倒
面接
面白
面積
面談
革命
靴下
韓国
音声
音楽
音源
音痴
音色
音質
音量
音響
音頭
響い
響き
響く
頂い
頂き
頂く
頂け
頂上
頂戴
頂点
項目
順位
順次
順番
順調
須磨
須賀
預け
預金
頑張
領収
領土
領域
頭痛
頭皮
頭脳
頻度
頻繁
頼っ
頼ま
頼み
頼む
頼め
頼も
頼ら
頼り
頼る
頼ん
顔面
願い
願う
願っ
願望
顧問
顧客
風俗
風呂
風味
風情
風景
風潮
風物
風船
風邪
風鈴
飛ば
飛び
飛ぶ
飛べ
飛ん
飛行
飛躍
飛騨
飛鳥
食い
食う
食え
食し
食す
食っ
食べ
食わ
食事
食券
食卓
食品
食器
食堂
食後
食感
食料
食材
食欲
食物
食糧
食費
飯坂
飯塚
飯店
飯田
飯能
飲ま
飲み
飲む
飲め
飲ん
飲料
飲酒
飲食
飼い
飼う
飼っ
飼育
飽き
飾っ
飾ら
飾り
飾る
餃子
養成
養殖
養生
養老
館内
館山
館林
饅頭
首位
首相
首脳
首都
香ば
香り
香る
香取
香川
香水
香港
馬券
馬力
馬場
馬車
馬連
馬鹿
馳せ
馳走
馴染
駄目
駅伝
駅前
駅名
駅員
駅弁
駅舎
駅近
駆け
駆使
駆動
駆除
駐屯
駐車
駐輪
駿河
騎乗
騎士
騎手
騒い
騒が
騒ぎ
騒ぐ
騒動
騒音
騙さ
騙し
驚い
驚か
驚き
驚く
驚愕
骨折
骨格
骨盤
高い
高く
高み
高め
高井
高価
高値
高円
高卒
高原
高台
高圧
高尾
高層
高山
高岡
高島
高崎
高市
高度
高木
高松
高架
高校
高槻
高橋
高津
高温
高熱
高田
高知
高砂
高等
高級
高菜
高速
高野
高額
高騰
高齢
髙橋
髪型
髪色
鬱陶
鬼怒
鬼畜
魅せ
魅了
魅力
魔女
魔法
魔王
魚介
魚屋
鮮度
鮮明
鮮魚
鰹節
鳥取
鳥居
鳥栖
鳥羽
鳥肌
鳳凰
鳴い
鳴き
鳴く
鳴っ
鳴ら
鳴り
鳴る
鳴門
鴨川
鴻巣
鶏油
鶏肉
鶴岡
鶴橋
鶴舞
鶴見
鹿児
鹿島
鹿肉
麒麟
麦茶
麦酒
麺類
麻婆
麻布
麻生
麻痺
麻薬
麻衣
麻酔
麻里
麻雀
黄昏
黄砂
黄色
黄身
黄金
黒い
黒く
黒崎
黒川
黒木
黒板
黒毛
黒猫
黒田
黒糖
黒豆
黒豚
黒部
黒髪
黙っ
黙祷
鼻水
鼻血
齋藤
龍一
龍神
龍馬
ꉂꉂ
︎︎
𐤔𐤔
𓈒𓏸
🅿️
🇦🇷
🇧🇷
🇨🇳
🇩🇪
🇪🇸
🇫🇷
🇬🇧
🇭🇷
🇮🇹
🇯🇵
🇰🇷
🇷🇺
🇹🇭
🇺🇦
🇺🇸
🌙😃
🌸🌸
🍜🍜
🍜🍥
🍜😋
🍴🙏
🎂🎉
🎄🎅
🎉🎉
🎉🎊
🎊🎉
🎶🎶
🏍💨
👀👀
👊😆
👋😃
👋😆
👍🏻
👍👍
👍😁
👍😆
👍😊
👏🏻
👏👏
👨🏻
👩🏻
💁🏻
💓💞
💕💕
💢💢
💢😠
💦💦
💦😅
💨💨
💪🏻
💪💪
💪🔥
💫😵
🔥🔥
😀😀
😁👍
😁😁
😂👍
😂💦
😂😂
😂🤣
😃🌃
😃👍
😃💕
😃😃
😄👍
😄💡
😄😄
😅👍
😅💦
😅😅
😆🎵
😆🎶
😆👍
😆💕
😆💦
😆😆
😆🙌
😇😇
😉👍
😊🎶
😊👍
😊💕
😊😊
😊🙏
😋🍴
😋👍
😋💕
😋😋
😌💓
😌😌
😍👍
😍💕
😍😍
😎👍
😎😎
😏😏
😓😓
😖💦
😢😢
😣💦
😤😤
😨😨
😩😩
😭💕
😭💦
😭😭
😭🙏
😰😰
😱💦
😱😱
😳💦
😳😳
😵💦
😵😵
😻😻
🙄🙄
🙆🏻
🙇🏻
🙇🙇
🙋🏻
🙌🏻
🙌🙌
🙏🏻
🙏💦
🙏🙇
🙏🙏
🚃💨
🚗💨
🚙💨
🚚💨
🤔💭
🤔🤔
🤗💕
🤗🤗
🤣👍
🤣💦
🤣😂
🤣🤣
🤤🤤
🤦🏻
🤩👍
🤩🤩
🤭🤭
🥰💕
🥰💘
🥰🥰
🥲🥲
🥳🥳
🥹🥹
🥹🫶
🥺💕
🥺💦
🥺🥺
🫠🫠
🫡🫡
🫣🫣
🫶🏻
##!!
###)
##((
##(*
##(-
##(;
##(^
##(⁠
##))
##*)
##**
##,,
##-'
##-)
##--
##-⌒
##.*
##..
##.。
##//
##00
##10
##11
##12
##13
##14
##15
##16
##17
##18
##19
##20
##21
##22
##23
##24
##25
##26
##27
##28
##29
##30
##31
##33
##35
##37
##40
##42
##44
##45
##46
##49
##50
##55
##60
##66
##67
##70
##77
##80
##88
##89
##90
##99
##;)
##=)
##AB
##AC
##AD
##AF
##AG
##AH
##AI
##AK
##AL
##AM
##AN
##AP
##AR
##AS
##AT
##AW
##AX
##AY
##AZ
##An
##BA
##BC
##BE
##BL
##BO
##BS
##CA
##CC
##CE
##CH
##CO
##Ch
##Cl
##Co
##DA
##DD
##DE
##DO
##EB
##EC
##ED
##EE
##EL
##EM
##EN
##EO
##EP
##ER
##ES
##ET
##EX
##FC
##FF
##FL
##FM
##FT
##Fi
##GA
##GB
##GC
##GE
##GM
##GO
##GP
##GS
##GT
##HD
##HE
##HI
##HO
##IA
##IB
##IC
##ID
##IE
##IF
##IG
##II
##IK
##IL
##IM
##IN
##IO
##IP
##IQ
##IR
##IS
##IT
##IV
##IW
##IX
##IY
##IZ
##JI
##JO
##KA
##KE
##KI
##KO
##KS
##KY
##Ki
##LD
##LE
##LL
##LO
##LS
##MA
##MI
##MO
##NA
##ND
##NN
##NP
##NS
##NY
##OB
##OC
##OD
##OG
##OH
##OK
##OL
##OM
##ON
##OO
##OP
##OR
##OS
##OT
##OW
##PA
##PO
##PY
##Pr
##QU
##RA
##RE
##RO
##RS
##RY
##SA
##SE
##SH
##SP
##SR
##ST
##St
##TA
##TC
##TE
##TH
##TM
##TO
##TR
##TS
##TT
##TV
##UB
##UC
##UD
##UE
##UG
##UK
##UL
##UM
##UN
##UP
##UR
##US
##UT
##VA
##VE
##WW
##YA
##YM
##YO
##YP
##YS
##ZA
##ZO
##\(
##^)
##^;
##^⁠
##__
##`)
##ab
##ac
##ad
##af
##ag
##ah
##ai
##ak
##al
##am
##an
##ao
##ap
##ar
##as
##at
##av
##aw
##ax
##ay
##az
##bc
##be
##bl
##bo
##br
##bs
##by
##ce
##ch
##ck
##cl
##co
##ct
##da
##de
##dy
##eb
##ec
##ed
##ee
##eg
##el
##em
##en
##ep
##er
##es
##et
##ew
##ex
##ey
##fc
##fe
##ff
##fl
##fm
##fr
##ft
##ge
##gg
##gh
##gi
##gl
##go
##ha
##he
##hi
##ho
##hy
##iN
##iU
##ia
##ib
##ic
##id
##ie
##if
##ig
##ii
##ik
##il
##im
##in
##io
##ip
##ir
##is
##it
##iv
##ix
##iy
##iz
##ja
##ji
##jo
##jp
##ka
##ki
##ko
##ks
##ky
##la
##ld
##le
##ll
##ly
##ma
##me
##mi
##mp
##my
##nd
##ne
##ny
##ob
##oc
##od
##oe
##of
##og
##oh
##oi
##ok
##ol
##om
##on
##oo
##op
##or
##os
##ot
##ou
##ov
##ow
##ox
##oy
##pl
##pp
##ps
##qu
##ra
##re
##ri
##ro
##ru
##ry
##sc
##se
##sh
##sp
##st
##su
##ta
##te
##th
##tm
##to
##tr
##ts
##ty
##ub
##uc
##ud
##ue
##ug
##uj
##uk
##ul
##um
##un
##uo
##up
##ur
##us
##ut
##uu
##ux
##ve
##wa
##ww
##ya
##yc
##ym
##yn
##yo
##yp
##ys
##yu
##za
##zu
##zy
##zz
##~~
##ʬʬ
##ˬᴗ
##̥̥
##̶̷
##ᅠᅠ
##ᗜˋ
##ᴗˋ
##⁠)
##↓↓
##∀≦
##∠)
##∩)
##━━
##┈┈
##▽'
##●)
##◡╹
##✨✨
##❤❤
##。)
##。-
##々木
##〜〜
##ああ
##あい
##あき
##あげ
##あっ
##あら
##あり
##ある
##あん
##いち
##いは
##いま
##いや
##いる
##いろ
##うま
##ええ
##えず
##えて
##える
##えん
##おい
##おう
##おお
##おき
##おっ
##おり
##おん
##かい
##かえ
##かき
##かく
##かけ
##かさ
##かし
##かす
##かせ
##かっ
##かつ
##かも
##から
##かり
##かる
##かれ
##かわ
##かん
##がい
##がう
##がえ
##がき
##がけ
##がさ
##がし
##がす
##がた
##がっ
##がな
##がね
##がみ
##がら
##がり
##がる
##がれ
##がわ
##がん
##が丘
##きっ
##きゃ
##きり
##きん
##き通
##ぎっ
##ぎり
##ぎる
##ぎれ
##くし
##くじ
##くそ
##くっ
##くま
##くら
##くり
##くる
##くれ
##くわ
##くん
##ぐい
##ぐち
##ぐっ
##ぐら
##ぐり
##ぐる
##ぐれ
##ぐろ
##ける
##けれ
##けん
##げる
##げん
##こい
##こう
##こく
##こさ
##こし
##こつ
##こま
##こみ
##こり
##これ
##ころ
##こん
##ごい
##ごう
##ごく
##ごし
##ごと
##ごろ
##ご飯
##さい
##さか
##さぎ
##さく
##さし
##さっ
##さつ
##さて
##さと
##さび
##さま
##さら
##さり
##さる
##さん
##ざい
##ざし
##ざま
##ざり
##ざん
##しい
##しお
##しか
##しき
##しく
##しこ
##した
##して
##しま
##しみ
##しむ
##しめ
##しゃ
##しょ
##しり
##しろ
##しん
##じく
##じっ
##じて
##じみ
##じめ
##じゃ
##じり
##じる
##じわ
##じん
##じ茶
##すき
##すぐ
##すけ
##すじ
##すら
##すり
##する
##すれ
##ずか
##ずく
##ずみ
##ずら
##ずる
##せる
##せん
##ぜい
##ぜん
##そう
##そく
##そこ
##そば
##そも
##そり
##そろ
##ぞれ
##たい
##たえ
##たか
##たく
##たけ
##たし
##たた
##ただ
##たっ
##たて
##たび
##たま
##たら
##たり
##たる
##たれ
##たん
##だい
##だか
##だく
##だし
##だち
##だら
##だれ
##だん
##ちこ
##ちゃ
##ちゅ
##ちょ
##ちら
##ちん
##っか
##っき
##っく
##っこ
##った
##っち
##って
##っと
##っぱ
##っぽ
##っ人
##っ子
##っ端
##つい
##つか
##つき
##つく
##つけ
##つま
##つゆ
##つり
##つる
##つん
##づい
##づき
##づく
##づけ
##てい
##てき
##ても
##てら
##てり
##てる
##てん
##でに
##でも
##でん
##とい
##とう
##とめ
##とら
##とり
##とる
##とろ
##とん
##どい
##どう
##どき
##ども
##どり
##どん
##ない
##なか
##なく
##なし
##なす
##なた
##なっ
##なに
##なみ
##なら
##なり
##なる
##なれ
##なわ
##なん
##にく
##にち
##にゃ
##ぬき
##ぬく
##ねぎ
##ねる
##ねん
##のき
##のく
##のこ
##のび
##のり
##の中
##の内
##の出
##の子
##の川
##の毛
##の花
##の間
##はぎ
##はは
##はや
##はり
##はん
##ばさ
##ばし
##ばす
##ばせ
##ばた
##ばっ
##ばら
##ばり
##ばる
##ばれ
##ばん
##ぱい
##ぱく
##ぱり
##ひら
##ひろ
##びき
##びこ
##びっ
##びら
##びり
##びる
##びれ
##ぴら
##ぴり
##ぴん
##ふく
##ふら
##ぶき
##ぶさ
##ぶし
##ぶた
##ぶつ
##ぶら
##ぶり
##ぶる
##ぶれ
##ぶん
##ぷく
##ぷら
##ぷり
##ぷん
##へへ
##へん
##べい
##べえ
##べく
##べる
##ぺん
##ほど
##ほほ
##ほら
##ぼう
##ぼけ
##ぼこ
##ぼし
##ぼす
##ぼち
##ぼの
##ぼり
##ぼろ
##ぽか
##ぽど
##ぽろ
##ぽん
##まぁ
##まあ
##まい
##まえ
##まき
##まけ
##まさ
##まし
##まじ
##ます
##まず
##また
##まだ
##まっ
##まね
##まま
##まら
##まり
##まる
##まれ
##まん
##みち
##みつ
##みる
##みれ
##むす
##むら
##むり
##めい
##めき
##めく
##めし
##めて
##めり
##める
##めん
##もう
##もぐ
##もち
##もっ
##もと
##もの
##もふ
##もも
##もや
##もり
##もる
##もれ
##もろ
##もん
##やい
##やか
##やき
##やく
##やけ
##やさ
##やし
##やす
##やま
##やり
##ゅう
##ゅん
##ゆい
##ゆき
##ゆく
##ゆら
##ゆる
##ょう
##ょん
##よい
##よう
##よく
##よし
##よっ
##より
##らい
##らう
##らえ
##らか
##らぎ
##らく
##らさ
##らし
##らす
##らせ
##らっ
##らん
##りゃ
##りん
##るい
##れど
##れる
##れん
##ろい
##ろう
##ろし
##ろす
##ろっ
##ろん
##わい
##わか
##わけ
##わさ
##わざ
##わし
##わす
##わせ
##わっ
##わら
##わり
##わる
##われ
##わん
##んど
##んな
##んぼ
##んま
##ん坊
##ァァ
##ァー
##アア
##アイ
##アカ
##アゲ
##アス
##アツ
##アミ
##アム
##アラ
##アリ
##アル
##アン
##アー
##ィィ
##ィン
##ィー
##イア
##イイ
##イカ
##イキ
##イク
##イケ
##イス
##イズ
##イチ
##イツ
##イト
##イド
##イノ
##イベ
##イヤ
##イラ
##イル
##イロ
##イン
##ゥゥ
##ウィ
##ウイ
##ウェ
##ウォ
##ウオ
##ウキ
##ウジ
##ウス
##ウソ
##ウト
##ウド
##ウマ
##ウム
##ウラ
##ウル
##ウン
##ェェ
##ェル
##ェン
##エア
##エイ
##エエ
##エク
##エス
##エナ
##エビ
##エフ
##エム
##エラ
##エル
##エン
##エー
##ォォ
##オイ
##オウ
##オオ
##オカ
##オク
##オケ
##オシ
##オス
##オフ
##オブ
##オラ
##オリ
##オル
##オレ
##オロ
##オワ
##オン
##オー
##カイ
##カク
##カゲ
##カシ
##カス
##カタ
##カチ
##カツ
##カド
##カナ
##カノ
##カマ
##カミ
##カム
##カメ
##カラ
##カリ
##カル
##カレ
##カロ
##カワ
##カン
##カー
##ガイ
##ガキ
##ガク
##ガシ
##ガス
##ガタ
##ガチ
##ガニ
##ガミ
##ガメ
##ガラ
##ガリ
##ガル
##ガワ
##ガン
##ガー
##キシ
##キニ
##キャ
##キュ
##キラ
##キリ
##キン
##キー
##ギア
##ギス
##ギャ
##ギュ
##ギョ
##ギラ
##ギリ
##ギレ
##ギン
##ギー
##クエ
##クス
##クソ
##クタ
##クト
##クラ
##クリ
##クル
##クロ
##クー
##グイ
##グダ
##グチ
##グマ
##グラ
##グリ
##グル
##グレ
##グロ
##ケア
##ケイ
##ケル
##ケン
##ケー
##ゲバ
##ゲン
##ゲー
##コウ
##コク
##コツ
##コト
##コミ
##コモ
##コラ
##コリ
##コル
##コレ
##コロ
##コン
##コー
##ゴミ
##ゴリ
##ゴル
##ゴロ
##ゴン
##ゴー
##サイ
##サウ
##サカ
##サガ
##サキ
##サギ
##サク
##サス
##サビ
##サポ
##サミ
##サム
##サラ
##サリ
##サル
##サワ
##サン
##サー
##ザイ
##ザキ
##ザク
##ザワ
##ザン
##ザー
##シア
##シイ
##シェ
##シエ
##シオ
##シカ
##シク
##シコ
##シシ
##シス
##シタ
##シマ
##シャ
##シュ
##ショ
##シル
##シロ
##シン
##シー
##ジア
##ジェ
##ジエ
##ジオ
##ジマ
##ジメ
##ジャ
##ジュ
##ジョ
##ジラ
##ジル
##ジロ
##ジワ
##ジン
##ジー
##スイ
##スカ
##スキ
##スク
##スコ
##スタ
##ステ
##スト
##スパ
##スピ
##スペ
##スポ
##スマ
##スメ
##スラ
##スロ
##ズブ
##ズマ
##ズミ
##ズム
##ズラ
##ズル
##セイ
##セカ
##セキ
##セス
##セラ
##セリ
##セル
##セロ
##セン
##セー
##ゼル
##ゼロ
##ゼン
##ソウ
##ソク
##ソニ
##ソメ
##ソラ
##ソル
##ソワ
##ソン
##ソー
##ゾン
##ゾー
##タイ
##タカ
##タキ
##タク
##タケ
##タス
##タタ
##タテ
##タニ
##タマ
##タム
##タメ
##タラ
##タリ
##タル
##タン
##ター
##ダイ
##ダカ
##ダス
##ダチ
##ダム
##ダヤ
##ダラ
##ダル
##ダレ
##ダン
##ダー
##チア
##チェ
##チオ
##チカ
##チキ
##チク
##チナ
##チャ
##チュ
##チョ
##チラ
##チル
##チン
##チー
##ッと
##ッカ
##ッキ
##ック
##ッグ
##ッケ
##ッコ
##ッサ
##ッシ
##ッジ
##ッス
##ッズ
##ッセ
##ッソ
##ッタ
##ッチ
##ッッ
##ッツ
##ッテ
##ット
##ッド
##ッハ
##ッパ
##ッピ
##ッフ
##ップ
##ッペ
##ッポ
##ツイ
##ツキ
##ツジ
##ツボ
##ツム
##ツル
##ツン
##ツー
##ティ
##テイ
##テキ
##テク
##テナ
##テム
##テラ
##テル
##テレ
##テン
##テー
##デア
##ディ
##デイ
##デオ
##デカ
##デス
##デム
##デュ
##デル
##デレ
##デン
##デー
##トゥ
##トウ
##トコ
##トナ
##トモ
##トラ
##トリ
##トル
##トレ
##トロ
##トン
##トー
##ドア
##ドゥ
##ドウ
##ドキ
##ドバ
##ドラ
##ドリ
##ドル
##ドロ
##ドン
##ドー
##ナイ
##ナカ
##ナス
##ナド
##ナナ
##ナビ
##ナミ
##ナム
##ナラ
##ナリ
##ナル
##ナン
##ナー
##ニア
##ニオ
##ニカ
##ニク
##ニコ
##ニス
##ニチ
##ニム
##ニャ
##ニヤ
##ニュ
##ニョ
##ニラ
##ニン
##ニー
##ヌヌ
##ヌレ
##ヌー
##ネギ
##ネコ
##ネス
##ネタ
##ネリ
##ネル
##ネン
##ネー
##ノキ
##ノコ
##ノス
##ノミ
##ノリ
##ノン
##ノー
##ノ水
##ハァ
##ハイ
##ハウ
##ハギ
##ハス
##ハツ
##ハナ
##ハネ
##ハハ
##ハマ
##ハム
##ハラ
##ハリ
##ハン
##ハー
##バイ
##バキ
##バク
##バサ
##バシ
##バス
##バタ
##バチ
##バツ
##バテ
##バネ
##バブ
##バペ
##バラ
##バリ
##バル
##バレ
##バン
##バー
##パイ
##パオ
##パク
##パス
##パチ
##パラ
##パリ
##パル
##パレ
##パン
##パー
##ヒヤ
##ヒリ
##ヒロ
##ヒー
##ビア
##ビィ
##ビエ
##ビス
##ビュ
##ビリ
##ビル
##ビロ
##ビン
##ビー
##ピア
##ピカ
##ピス
##ピラ
##ピリ
##ピン
##ピー
##ファ
##フィ
##フェ
##フォ
##フト
##フフ
##フラ
##フリ
##フル
##フレ
##フワ
##フン
##フー
##ブス
##ブラ
##ブリ
##ブル
##ブレ
##ブロ
##ブン
##ブー
##プス
##プタ
##プト
##プラ
##プリ
##プル
##プレ
##プロ
##プー
##ヘイ
##ヘト
##ヘヘ
##ヘラ
##ヘル
##ヘロ
##ヘン
##ベイ
##ベス
##ベタ
##ベツ
##ベル
##ベロ
##ベン
##ベー
##ペア
##ペイ
##ペコ
##ペラ
##ペル
##ペロ
##ペン
##ホイ
##ホウ
##ホク
##ホホ
##ホラ
##ホン
##ホー
##ボウ
##ボク
##ボコ
##ボス
##ボチ
##ボリ
##ボル
##ボロ
##ボン
##ボー
##ポカ
##ポケ
##ポチ
##ポツ
##ポポ
##ポリ
##ポン
##ポー
##マイ
##マガ
##マキ
##マサ
##マシ
##マジ
##マス
##マチ
##マト
##マニ
##マネ
##ママ
##マム
##マヨ
##マリ
##マル
##マロ
##マン
##マー
##ミア
##ミク
##ミス
##ミツ
##ミナ
##ミネ
##ミヤ
##ミュ
##ミル
##ミン
##ミー
##ムキ
##ムシ
##ムス
##ムズ
##ムチ
##ムラ
##メイ
##メキ
##メシ
##メラ
##メリ
##メル
##メロ
##メン
##モア
##モク
##モグ
##モス
##モチ
##モテ
##モト
##モニ
##モノ
##モフ
##モヤ
##モリ
##モン
##モー
##ャン
##ャー
##ヤバ
##ヤマ
##ヤン
##ヤー
##ュッ
##ュフ
##ュン
##ュー
##ユキ
##ユニ
##ユー
##ョイ
##ョウ
##ョロ
##ョン
##ョー
##ヨウ
##ヨク
##ヨシ
##ヨン
##ヨー
##ライ
##ラシ
##ラジ
##ラス
##ラブ
##ラマ
##ラム
##ララ
##ラル
##ラン
##ラー
##リア
##リエ
##リオ
##リカ
##リコ
##リス
##リヤ
##リュ
##リラ
##リル
##リン
##リー
##ルク
##ルコ
##ルス
##ルタ
##ルト
##ルド
##ルフ
##ルム
##ルル
##ルン
##ルー
##レア
##レイ
##レオ
##レコ
##レス
##レツ
##レナ
##レラ
##レル
##レレ
##レン
##レー
##ロウ
##ログ
##ロコ
##ロス
##ロニ
##ロラ
##ロン
##ロー
##ワイ
##ワク
##ワシ
##ワリ
##ワワ
##ワン
##ワー
##ンク
##ング
##ンジ
##ンス
##ンズ
##ンチ
##ント
##ンド
##ンバ
##ンプ
##ヴァ
##ヴィ
##ヴェ
##ヴォ
##ヶ丘
##ヶ原
##ヶ岳
##ヶ島
##ヶ崎
##ヶ浜
##ヶ浦
##ヶ瀬
##ヶ谷
##ーい
##ーく
##ーと
##ーん
##ーイ
##ーキ
##ーク
##ーグ
##ージ
##ース
##ーズ
##ータ
##ーチ
##ーツ
##ート
##ード
##ーナ
##ーフ
##ーブ
##ープ
##ーマ
##ーム
##ーラ
##ール
##ーン
##ーー
##一人
##一郎
##丈夫
##三郎
##上げ
##下げ
##並み
##久保
##之介
##之助
##之島
##之江
##乗り
##五郎
##井沢
##仁田
##今日
##仕事
##付い
##付か
##付き
##付く
##付け
##伊豆
##休み
##伸び
##作り
##使い
##倒し
##倒れ
##借り
##儲け
##入っ
##入り
##入る
##入れ
##兵衛
##冷え
##出さ
##出し
##出す
##出せ
##出る
##刀魚
##分け
##切っ
##切ら
##切り
##切る
##切れ
##刈り
##初め
##利き
##刺し
##割り
##勝ち
##勝手
##占め
##去っ
##去り
##参り
##反田
##取っ
##取ら
##取り
##取る
##取れ
##受け
##古屋
##合い
##合う
##合え
##合せ
##合っ
##合わ
##向い
##向き
##向け
##呑み
##和田
##咲き
##四郎
##回し
##回っ
##回り
##回る
##土産
##塗り
##増し
##売り
##外し
##外れ
##多摩
##大寺
##太郎
##好き
##好み
##嫌い
##孫子
##寄せ
##寄っ
##寄り
##寄る
##寿司
##射し
##小路
##尽き
##巡り
##差し
##巻き
##帰り
##干し
##広島
##引き
##弥陀
##張っ
##張り
##張る
##強い
##強く
##当て
##待ち
##後日
##徒町
##御飯
##心地
##志野
##忙し
##応え
##思議
##急ぎ
##惚れ
##戻し
##戻り
##打ち
##払い
##払っ
##投げ
##抜い
##抜か
##抜き
##抜け
##押し
##拾い
##持ち
##振り
##捨て
##掛け
##探し
##掻き
##揃い
##揃え
##揉み
##描き
##揚げ
##換え
##撮り
##放し
##斎橋
##日市
##早う
##早く
##明け
##晴ら
##晴れ
##暮れ
##暮里
##書き
##替え
##替り
##本松
##村山
##染め
##植え
##構え
##次郎
##止め
##歩い
##歩き
##歩く
##残し
##残り
##殺し
##比べ
##求め
##河原
##治見
##沿い
##泣き
##泣く
##洒落
##洗い
##流し
##海老
##海苔
##海道
##浸し
##消し
##深い
##混ぜ
##混み
##渡し
##漏れ
##漬け
##潰し
##濡れ
##炊き
##無い
##無し
##焼き
##焼け
##牟田
##牡蠣
##狩り
##王子
##生き
##田谷
##甲斐
##留め
##留米
##疲れ
##登り
##盛り
##直ぐ
##直さ
##直し
##直す
##眠り
##矢理
##磨き
##祭り
##稲田
##稼ぎ
##積み
##立た
##立ち
##立っ
##立つ
##立て
##笑い
##納め
##組み
##継い
##継が
##継ぎ
##継ぐ
##続き
##続け
##締め
##置き
##美子
##育て
##臭い
##舞い
##良野
##若松
##苦茶
##荒れ
##落ち
##落と
##蒸し
##蕎麦
##行き
##衛門
##見え
##見沢
##覚え
##解き
##触り
##言葉
##討ち
##詰め
##語り
##読み
##請け
##負け
##買い
##起き
##起こ
##越え
##越し
##越す
##足し
##足り
##踊り
##辛子
##込ま
##込み
##込む
##込め
##込ん
##迎え
##返さ
##返し
##返す
##返せ
##返っ
##返り
##返る
##送り
##逃げ
##逃し
##通し
##通り
##造り
##連れ
##遂げ
##遅れ
##遊び
##過ぎ
##過ご
##違い
##違え
##遠い
##遣い
##酔い
##釣り
##開き
##開け
##降り
##除け
##陽花
##隠し
##集め
##離れ
##難い
##難う
##面目
##須賀
##風呂
##食い
##飲み
##飾り
##馬場
##馴染
##騒ぎ
##高田
##鳴り
##︎︎
##🇯🇵
##🌈🌈
##🌸🌸
##🌻🌻
##🍀🍀
##🍓🍓
##🍺🍺
##🍻🍻
##🎉🎉
##🎏🎏
##🎶🎶
##🐟🐟
##👍👍
##👏🏻
##👏👏
##💓💓
##💕💕
##💖💖
##💗💗
##💙💙
##💚💚
##💜💜
##💞💞
##💢💢
##💤💤
##💦💦
##💨💨
##💸💸
##📣📣
##🔥🔥
##😂😂
##😆😆
##😊😊
##😋😋
##😍😍
##😘😘
##😡😡
##😭😭
##😱😱
##😷😷
##🙌🏻
##🙌🙌
##🙏🏻
##🙏🙏
##🤔🤔
##🤣🤣
##🤤🤤
##🤪🤪
##🥰🥰
##🥶🥶
##🥺🥺
##🫶🏻
##🫶🫶
')/
'*)
'-'
(((
(*'
(*^
(*`
(;^
(^-
(^^
(┐「
(。-
---
-;)
-`)
...
..✨
000
050
080
090
100
101
102
103
104
105
106
108
109
110
111
113
115
117
119
120
123
125
128
130
135
140
144
145
148
150
155
160
165
170
175
180
183
185
190
195
196
197
198
199
200
201
202
205
210
211
220
223
225
230
240
246
250
270
280
290
300
320
330
350
360
365
380
390
400
430
450
480
500
550
551
600
650
660
680
700
720
750
765
775
777
780
787
795
800
802
813
847
850
880
897
900
950
954
980
990
999
;`)
;∀&
;。)
<;)
ABC
ABE
ACL
AIR
AKB
ALL
ANA
ANN
ART
ATM
Ado
Air
All
And
App
Art
BAB
BAN
BAR
BBA
BBQ
BGM
BIG
BMW
BOX
BRE
BRZ
BTS
Bar
Big
Blu
CAR
CBC
CBD
CBR
COL
COM
CON
CPU
Can
Car
Che
Chi
Col
Con
DAY
DAZ
DIG
DIY
DNA
DVD
Day
Dis
ETC
FAM
FAN
FES
FGO
FIF
FOR
For
GEN
GET
GIG
GOD
GPS
GSX
Get
HAN
HAP
HDD
HKT
HND
HON
HOT
HUB
Hot
III
IKE
IPA
JAF
JAL
JAM
JIN
JRA
JUN
KAN
KAZ
KDD
KEN
KIT
Kan
Kaw
Kin
LAW
LED
Let
MAD
MAN
MAR
MAX
MBS
MHz
MIN
MIS
MIX
MLB
MON
MRI
MTG
MUS
MVP
Mac
Man
Mar
Max
Met
Min
Miy
Mon
NBA
NEW
NEX
NFT
NGT
NHK
NIK
NMB
NOW
NPB
NPO
NTT
Nag
Net
New
Now
OFF
ONE
OUT
Off
One
PAR
PCR
POP
POW
PRO
PTA
Par
Pay
Pok
Pre
Pro
RAD
RED
RIZ
RRR
RUN
Red
SAK
SAL
SAM
SAN
SAS
SDG
SHI
SIM
SKE
SKY
SNS
SOL
SON
SPY
SSD
SSR
STU
SUM
SUN
SUZ
Sat
Shi
Six
Sum
Sun
TAK
TBS
TEL
THE
TIF
TKG
TOE
TOK
TOM
TOP
TOY
Tak
The
Tik
ToT
Tok
Tom
UFO
URL
USB
USJ
VAR
VIP
Ver
Vol
WBC
WEB
WIN
WOR
WOW
WWW
Web
Win
YAM
YES
YOK
YOU
You
ZIP
\(^
^)/
^*)
^;)
^=)
^^)
^^;
`*)
`;)
`●)
air
alb
all
amp
and
are
art
bar
bay
bot
but
can
car
chi
col
com
con
day
dis
doc
etc
fan
for
get
goo
han
iOS
kan
kaw
ken
kry
man
mar
mas
men
min
mix
mmm
mon
mot
new
nhk
not
now
off
one
orz
out
pay
pop
pro
rad
ray
run
san
sat
sbh
set
shi
sil
sum
sun
tbs
the
tok
tom
tra
ver
via
vol
was
web
win
www
you
zzz
ˊᗜˋ
ˊᴗˋ
̴̶̷
ΦωΦ
∀`)
∇`)
▽`)
✨!!
✨✨✨
」∠)
ぁああ
あああ
あいつ
あえて
あおい
あかね
あかり
あがっ
あがり
あがる
あきら
あくま
あげる
あげれ
あさっ
あさひ
あさり
あした
あすか
あずき
あずさ
あそこ
あそび
あたい
あたし
あたた
あたっ
あたま
あたり
あたる
あだ名
あちゃ
あちら
あった
あっち
あつい
あなた
あの世
あはは
あふれ
あぶね
あぶら
あべの
あまり
あやめ
あゆみ
あらた
あらら
ありか
ありが
ありの
ありゃ
あれっ
あれれ
あろう
あわせ
あんこ
あんず
あんた
あんな
あんま
あーあ
いいえ
いかが
いかに
いかん
いくら
いける
いこう
いじっ
いじめ
いじり
いずみ
いずれ
いたい
いたし
いただ
いちご
いっそ
いっつ
いてる
いでよ
いとこ
いなり
いまだ
いやぁ
いやあ
いやん
いやー
いよい
いよう
いらし
いれる
いろは
いわき
いわし
ううう
うぇい
うぉー
うさぎ
うざい
うずら
うちわ
うどん
うなぎ
うふふ
うまい
うまく
うまし
うめえ
うらや
うるさ
うるせ
うれし
うわぁ
うわあ
うわっ
うわー
うんこ
うんち
うーむ
うーん
えぇぇ
えぐい
えっち
えっと
えびす
えらい
おいし
おいち
おいら
おおい
おおお
おおき
おおっ
おおー
おかげ
おかし
おかず
おこう
おこし
おさん
おしゃ
おせち
おたく
おっき
おっと
おでん
おとな
おなか
おなじ
おはぎ
おまえ
おまけ
おもい
おもう
おもっ
おもろ
おやじ
おやつ
およそ
および
おろし
おわっ
おわり
おんな
おーい
お好み
お巡り
お早う
お洒落
かいな
かえり
かえる
かおり
かかっ
かから
かかり
かかる
かかれ
かき氷
かける
かさん
かしこ
かしら
かしわ
かすみ
かっけ
かっこ
かっぱ
かつお
かつて
かつ丼
かなっ
かなり
かぶっ
かぶり
かまし
かまっ
かもめ
からだ
かりん
かれん
かわい
かわっ
かわゆ
かわら
かわり
かんじ
かんな
かんぱ
がかっ
がたい
がてら
がんば
きげん
きちん
きっと
きっぷ
きつい
きつね
きなこ
きな粉
きのう
きのこ
きもち
きゃん
きゃー
きゅう
きゅん
きょう
きよし
きらら
きれい
ぎゃー
ぎょう
くさい
くさく
くしゃ
くじら
くださ
くだら
くだり
くっそ
くつろ
くらい
くらし
くらっ
くるま
くるみ
くれる
くれれ
ぐちゃ
ぐらい
ぐらし
ぐるっ
ぐんま
けれど
こいつ
こころ
こたつ
こたん
こだま
こちら
こっち
ことば
こども
こない
こなし
こなす
こなせ
この世
この頃
こぼし
こぼれ
こまち
こまめ
こもっ
こよう
こりゃ
こわい
こんち
こんど
こんな
ござい
ござる
ごちゃ
ごっこ
ごとく
ごはん
ごぼう
ごめん
さいこ
さかい
さかな
さくら
ささみ
さすが
させる
さっき
さつま
さとみ
さほど
さむい
さやか
さゆり
さよう
さらっ
さらに
さらば
さりげ
さんぽ
さんま
さーて
さーん
ざます
しおり
しかし
しかた
しかも
しかり
しごと
しじみ
しずく
しっぽ
しのぶ
しばし
しぼり
しまい
しまう
しまえ
しまっ
しめじ
しめん
しもう
しゃあ
しゃぶ
しゃべ
しゃん
しゅう
しゅん
しょう
しょぼ
しょー
しよう
しよっ
しよー
しらす
しらん
しるこ
しんど
じっと
じゃぁ
じゃあ
じゃい
じゃう
じゃが
じゃっ
じゃま
じゃろ
じゃん
じゃー
じゅう
じゅん
じょう
すき家
すぎる
すげぇ
すげえ
すげー
すこし
すごい
すごく
すすき
すすめ
すずめ
すだち
すてき
すでに
すべて
すみれ
すりゃ
すれ違
ずっと
ずらい
ずらし
ずるい
せいろ
せっせ
せめて
せよう
せんせ
ぜんぶ
そいつ
そして
そちら
そっち
そっと
そば処
そば屋
そびれ
そりゃ
そんな
たかし
たかっ
たがっ
たがる
たけし
たけれ
たしか
たたき
ただし
たった
たって
たとえ
たどり
たぬき
たのし
たのむ
たばこ
たぶん
たべる
たまご
たまっ
たまに
たまら
たまり
たまる
たまん
たまー
ため息
たらこ
たろう
たんぽ
だいじ
だいぶ
だらけ
だるい
だるま
だろう
だろー
だんご
ちがう
ちくわ
ちそう
ちなみ
ちなん
ちひろ
ちまう
ちまっ
ちゃあ
ちゃい
ちゃう
ちゃえ
ちゃお
ちゃく
ちゃっ
ちゃま
ちゃら
ちゃわ
ちゃん
ちやん
ちゅう
ちゅん
ちょい
ちょう
ちょく
ちょこ
ちょっ
ちょん
ちょー
ちらし
ちんこ
っから
っきゃ
っきり
っしょ
ったら
っちゃ
っつー
っぷり
っぽい
っぽく
ついで
ついに
つかい
つかっ
つかれ
つくし
つくっ
つくね
つくば
つくり
つくる
つける
つけれ
つけ汁
つけ麺
つづく
つなぎ
つなぐ
つばき
つばさ
つまみ
つまら
つまり
つまん
つもり
つよい
つらい
づくし
づくり
づらい
づらく
てりゃ
てるぅ
てんこ
でかい
でかけ
できる
できれ
でしゅ
でしょ
ですぅ
でちゅ
でっす
でーす
とある
とおり
ときゃ
とくに
とこう
ところ
とっく
とっと
とてつ
とても
ととの
となり
とまら
ともあ
とり天
とれる
とろろ
とんぼ
どうし
どうせ
どうぞ
どおり
どころ
どさん
どちら
どっち
どない
どなた
どんな
どーぞ
どーん
ないし
なかっ
なか卯
ながら
なきゃ
なぎさ
なくし
なくっ
なけれ
なさい
なさっ
なさら
なじみ
なにわ
なはれ
なまら
なまる
ならん
なれる
なろう
なんか
なんせ
なんぞ
なんだ
なんて
なんと
なんに
なんば
なんぼ
なーい
なーん
におい
にくい
にくく
にゃあ
にゃん
にゃー
にわか
ねがい
ねだり
ねぶた
ねむい
のぞみ
のっけ
のどか
のぼり
はいっ
はいり
はしご
はしゃ
はじめ
はずれ
はっぴ
はなし
ははは
はまっ
はまり
はやい
はやく
はやっ
はるか
はーい
ばかり
ばっか
ばら撒
ひかり
ひかる
ひき肉
ひさし
ひさび
ひじき
ひたち
ひつま
ひとと
ひとみ
ひとり
ひと時
ひどい
ひどく
ひなた
ひばり
ひょう
ひよこ
ひろし
ひろみ
びしょ
びびっ
ぴょん
ふぁい
ふくし
ふくら
ふざけ
ふたり
ふつう
ふふふ
ふらっ
ふわっ
ふわふ
ふーん
ぶっち
ぶっ壊
ぶっ飛
ぶつけ
ぶどう
ぶらり
ぷりん
ほぐし
ほしい
ほしく
ほっと
ほっぺ
ほのか
ほんと
ほんの
ほんま
ぼっち
まぁー
まいっ
まいど
まいり
まかせ
まくっ
まくり
まくる
まぐろ
まこと
まさか
まさに
まして
ましょ
まじか
まする
まずい
まちゃ
まつり
まとめ
まとも
まどか
まなみ
まぶし
まみれ
まるで
まわし
まわっ
まわり
まわる
まんま
みえる
みかん
みくじ
みさき
みずき
みずほ
みぞれ
みたい
みたく
みつけ
みどり
みなと
みなみ
みのり
みやげ
みやび
みゆき
みよう
みらい
みりん
みるく
みんな
むかし
むしろ
むすび
むすめ
むちゃ
めぐみ
めぐり
めぐる
めだか
めちゃ
めった
めまい
めんど
もずく
もたら
もっか
もっと
もつ煮
もとい
もどき
ものす
もはや
もみじ
もやし
もらい
もらう
もらえ
もらっ
もらわ
やかん
やがっ
やがて
やがる
やけど
やすい
やすく
やすみ
やたら
やっと
やっぱ
やはり
やばい
やばく
やべえ
やめる
やめれ
やめろ
ややこ
やよい
やる気
やれる
やろう
やろー
やわら
ゆうき
ゆうこ
ゆかり
ゆで卵
ゆとり
ゆるり
よかっ
よけれ
よだれ
よほど
よもぎ
よろし
よーく
よーし
よーん
らぁ麺
らしい
らしき
らしく
られる
られれ
りゅう
りょう
りんご
れよう
ろくな
ろくに
ろっく
わかっ
わかめ
わから
わかり
わかる
わかん
わさび
わざと
わしゃ
わすれ
わずか
わたし
わたる
わらび
わりと
わるい
わんこ
わーい
んかっ
んじゃ
アイス
アイツ
アイド
アイヌ
アイル
アウト
アウフ
アカデ
アキバ
アキラ
アクア
アクス
アクセ
アクト
アサヒ
アサリ
アジア
アタシ
アタマ
アタリ
アダム
アット
アップ
アツい
アディ
アトラ
アトリ
アナタ
アニキ
アニメ
アハハ
アヒル
アビス
アフタ
アブラ
アプリ
アポロ
アメ横
アライ
アラン
アリア
アリオ
アリガ
アリス
アルテ
アルト
アルバ
アルビ
アルミ
アル中
アロハ
アロマ
アワー
アンジ
アンタ
アンチ
アント
アンド
アンナ
アンプ
アーク
アース
アーチ
アート
アーム
アール
イエス
イオン
イカれ
イカン
イクラ
イケる
イジメ
イチゴ
イチャ
イトー
イヤー
イラッ
イラン
イルカ
イワシ
インク
イング
インコ
インス
インタ
インチ
インテ
インデ
イント
インド
インパ
イーグ
イート
ウィズ
ウィン
ウイン
ウェア
ウェイ
ウェブ
ウェル
ウォー
ウケる
ウサギ
ウザい
ウッド
ウナギ
ウフフ
ウマい
ウマイ
ウルフ
ウンコ
エアロ
エアー
エイト
エキス
エクス
エグい
エコー
エスカ
エステ
エッグ
エッジ
エッセ
エッチ
エディ
エネル
エビス
エブリ
エラい
エライ
エラー
エリア
エリザ
エルフ
エロい
エンカ
エンジ
エント
エンド
エヴァ
エース
エール
オイラ
オイル
オウム
オクラ
オシャ
オタク
オトナ
オフィ
オペラ
オマエ
オマケ
オムツ
オモロ
オヤジ
オヤツ
オリジ
オリン
オーガ
オーク
オーケ
オート
オード
オープ
オーラ
オール
カイロ
カウル
カウン
カエル
カオス
カカオ
カジノ
カスタ
カタチ
カッケ
カッコ
カット
カッパ
カップ
カツオ
カツ丼
カテゴ
カナダ
カバン
カバー
カフェ
カブト
カミナ
カムイ
カメラ
カモン
カラス
カラダ
カラー
カリス
カリー
カルテ
カルト
カルビ
カルボ
カレン
カレー
カンパ
カート
カード
カーブ
カープ
カール
ガイア
ガイド
ガスト
ガチャ
ガッツ
ガツン
ガトー
ガパオ
ガマン
ガラス
ガンバ
ガード
ガール
キウイ
キチン
キッカ
キック
キッズ
キット
キッド
キツい
キツく
キツイ
キツネ
キティ
キノコ
キムチ
キメる
キモい
キャス
キャバ
キャパ
キャブ
キャプ
キャラ
キャリ
キャロ
キャン
キャー
キュア
キュウ
キュン
キュー
キライ
キラー
キリッ
キリン
キレる
キレイ
キング
キン肉
キープ
キーマ
ギター
ギフト
ギャグ
ギャラ
ギャル
ギャン
ギルド
ギータ
クイズ
クジラ
クスリ
クソ暑
クック
クッソ
クライ
クラゲ
クラス
クラブ
クラン
クリア
クリエ
クリス
クリー
クルマ
クルー
クレイ
クレカ
クレー
クロア
クロス
クロー
クール
ググっ
グッズ
グッド
グラス
グラフ
グラブ
グラム
グラン
グリル
グリー
グルメ
グルー
グレイ
グレー
グロー
グース
ケチャ
ケバブ
ケンカ
ケンタ
ケーキ
ケージ
ケース
ゲスト
ゲッツ
ゲット
ゲリラ
ゲージ
ゲート
ゲーム
コアラ
コイツ
コイン
ココア
ココロ
コスタ
コスト
コスパ
コスメ
コスモ
コタツ
コチラ
コック
コッチ
コップ
コッペ
コナン
コピー
コペン
コミケ
コミュ
コメダ
コラボ
コラム
コロナ
コロン
コワイ
コンク
コンサ
コンセ
コンテ
コント
コンバ
コンパ
コンビ
コンピ
コンプ
コンペ
コンボ
コンポ
コンロ
コース
コーチ
コーデ
コート
コード
コープ
コーラ
コール
コーン
ゴジラ
ゴッド
ゴミ箱
ゴミ袋
ゴメン
ゴリラ
ゴルフ
ゴーヤ
ゴール
サイク
サイコ
サイズ
サイゼ
サイト
サイド
サイン
サウナ
サガン
サクッ
サクラ
サザエ
サザン
サツマ
サトシ
サドル
サニー
サバイ
サファ
サプリ
サボっ
サボり
サマー
サムネ
サラダ
サラッ
サロン
サワー
サンガ
サンタ
サント
サンド
サンバ
サンマ
サーキ
サード
サーバ
サーフ
ザック
ザンギ
シェア
シェフ
シェル
シチュ
シップ
シティ
シニア
シネマ
シフト
シミュ
シャア
シャイ
シャキ
シャチ
シャツ
シャト
シャバ
シャリ
シャレ
シャン
シャー
シュッ
シュー
ショウ
ショボ
ショー
シラス
シルク
シンガ
シンク
シング
シンド
シーク
シート
シード
シーフ
シール
シーン
ジェイ
ジェネ
ジェノ
ジェフ
ジェラ
ジェル
ジジイ
ジビエ
ジブリ
ジャイ
ジャグ
ジャケ
ジャス
ジャズ
ジャニ
ジャパ
ジャム
ジャン
ジャー
ジュラ
ジュン
ジュー
ジョイ
ジョグ
ジョナ
ジョブ
ジョン
ジョー
ジロー
スイカ
スイス
スウェ
スカイ
スカー
スキル
スキン
スキー
スクラ
スケベ
スゲェ
スゲー
スコア
スゴい
スゴイ
ススキ
ススメ
スズキ
スズメ
スタイ
スタバ
スタン
スター
スティ
ステイ
ステキ
ステラ
ステン
ステー
ストア
ストラ
ストレ
ストロ
ストー
スニー
スヌー
スノボ
スノー
スバル
スパイ
スパゲ
スパム
スパー
スピリ
スピン
スプラ
スプリ
スペア
スペー
スマホ
スミス
スヤァ
スライ
スラム
スリム
スリー
スルー
スロー
スワン
スーツ
スーパ
スープ
ズボン
ズルい
ズーム
セキュ
セコマ
セダン
セット
セトリ
セブン
セリア
セリフ
セルフ
セレブ
センシ
センス
センチ
セント
セーフ
セーブ
セール
ゼリー
ソウル
ソテー
ソニー
ソファ
ソフト
ソメイ
ソング
ソーキ
ソース
ソーダ
ソープ
ソール
ゾロ目
ゾンビ
ゾーン
タイガ
タイツ
タイト
タイプ
タイム
タイヤ
タイル
タウン
タオル
タクト
タコス
タスク
タタキ
タッグ
タッチ
タップ
タヌキ
タバコ
タマゴ
タミヤ
タモリ
タルト
タワー
タンク
タープ
ターボ
ターン
ダイア
ダイス
ダイナ
ダイブ
ダイヤ
ダウン
ダサい
ダック
ダブル
ダルい
ダンク
ダンス
ダンナ
ダンプ
ダーク
ダーツ
ダート
チェア
チェキ
チェコ
チェル
チェン
チカラ
チキン
チタン
チック
チップ
チャイ
チャラ
チャリ
チャン
チャー
チュウ
チュー
チョイ
チョウ
チョコ
チョロ
チョン
チョー
チラシ
チラッ
チラ見
チワワ
チーズ
チート
チーム
チーン
ツアー
ツイン
ツッコ
ツバメ
ツマミ
ツラい
ツライ
ツリー
ツール
ティア
ティラ
ティー
テイク
テクノ
テスト
テスラ
テック
テニス
テラス
テレビ
テレ朝
テレ東
テント
テンポ
テープ
テーマ
テール
ディア
ディス
ディレ
ディー
デイズ
デイト
デカい
デカく
デカイ
デザイ
デスク
デッキ
デッド
デニム
デニー
デビル
デフォ
デュオ
データ
デート
トイレ
トップ
トトロ
トホホ
トマト
トミカ
トヨタ
トライ
トラン
トリオ
トルク
トルコ
トレカ
トレー
トロン
トンボ
トーク
トート
トーマ
トーン
ドイツ
ドキッ
ドキュ
ドコモ
ドック
ドッグ
ドット
ドバイ
ドボン
ドミノ
ドライ
ドラマ
ドラム
ドリア
ドリフ
ドリル
ドレス
ドロー
ドンキ
ドーム
ドール
ドーン
ナイス
ナイツ
ナイト
ナイフ
ナイン
ナゴヤ
ナチス
ナチュ
ナッツ
ナット
ナポリ
ナンパ
ナース
ニセコ
ニック
ニット
ニトリ
ニャン
ニャー
ニヤリ
ニュー
ニーズ
ニート
ヌート
ネイル
ネオン
ネズミ
ネック
ネット
ネーム
ノイズ
ノック
ノベル
ノルマ
ノース
ノート
ハウス
ハガキ
ハサミ
ハシゴ
ハズレ
ハッチ
ハット
ハニー
ハハハ
ハマっ
ハマり
ハマる
ハヤシ
ハラス
ハラミ
ハリー
ハロウ
ハロー
ハワイ
ハンコ
ハンズ
ハンデ
ハンド
ハンパ
ハーツ
ハート
ハード
ハーフ
ハーブ
バイオ
バイク
バイト
バイン
バグっ
バケツ
バジル
バスケ
バター
バック
バッグ
バッジ
バッタ
バッチ
バッテ
バット
バディ
バトル
バトン
バナナ
バニラ
バニー
ババア
バファ
バブル
バラし
バラエ
バリア
バルブ
バレる
バレエ
バレル
バレン
バレー
バロン
バンク
バンテ
バント
バンド
バーグ
バース
バード
バーベ
バーム
バーン
パイプ
パイン
パクリ
パシャ
パジャ
パスタ
パズル
パチリ
パチ屋
パック
パッチ
パット
パッド
パティ
パネル
パフェ
パルコ
パルス
パレス
パワー
パンク
パンダ
パンチ
パンツ
パンフ
パンプ
パーク
パーソ
パーツ
パート
パーマ
パール
ヒカリ
ヒカル
ヒット
ヒップ
ヒュー
ヒラメ
ヒルズ
ヒロシ
ヒント
ヒート
ヒール
ビアン
ビキニ
ビジホ
ビジュ
ビター
ビック
ビッグ
ビット
ビデオ
ビビっ
ビビり
ビビる
ビュー
ビリヤ
ビリー
ビルド
ビンゴ
ビーズ
ビーチ
ビート
ビーフ
ビーム
ビール
ピアス
ピアノ
ピエロ
ピスタ
ピック
ピッチ
ピット
ピュア
ピリ辛
ピンク
ピング
ピンチ
ピント
ピーク
ピース
ピーチ
ファイ
ファジ
ファス
ファミ
ファル
ファン
ファー
フィリ
フィル
フィン
フィー
フェア
フェイ
フェス
フェチ
フェミ
フェル
フォア
フォグ
フォト
フォル
フォロ
フォン
フォー
フック
フット
フツー
フフフ
フュー
フライ
フラグ
フラン
フリマ
フリー
フルー
フレン
フレー
フロア
フロン
フロー
フード
フール
ブック
ブッチ
ブドウ
ブライ
ブラウ
ブラシ
ブラス
ブラン
ブリュ
ブリー
ブルベ
ブルー
ブレイ
ブレス
ブレー
ブログ
ブロン
ブロー
ブース
ブーツ
ブーム
プライ
プラグ
プラザ
プラス
プラモ
プラン
プリン
プレイ
プレス
プレゼ
プレミ
プレー
プロダ
プロテ
プロデ
プロフ
プロポ
プロモ
プール
ヘアー
ヘイト
ヘッド
ヘビー
ヘブン
ヘリコ
ヘルス
ヘルプ
ベスト
ベット
ベッド
ベビー
ベリー
ベルト
ベルー
ベンチ
ベンツ
ベース
ペダル
ペット
ペナル
ペロリ
ページ
ペース
ホスト
ホタテ
ホタル
ホッと
ホック
ホッケ
ホット
ホップ
ホテル
ホビー
ホラー
ホンダ
ホント
ホンマ
ホース
ホープ
ホーム
ホール
ホーン
ボイス
ボウル
ボタン
ボッチ
ボディ
ボトル
ボドゲ
ボラン
ボルト
ボンド
ボーイ
ボート
ボード
ボール
ボーン
ポカリ
ポケカ
ポスト
ポチっ
ポチッ
ポット
ポップ
ポテチ
ポテト
ポテン
ポニー
ポリス
ポルト
ポンド
ポンプ
ポン酢
ポーク
ポーズ
ポーチ
ポート
ポール
マイク
マイナ
マイル
マウス
マウン
マキシ
マクド
マクロ
マグロ
マサラ
マザー
マシュ
マシン
マスク
マスト
マダム
マック
マッサ
マッチ
マット
マッハ
マップ
マツコ
マツダ
マトモ
マトン
マナー
マニア
マニュ
マネー
マリア
マリオ
マリン
マリー
マルイ
マルコ
マルチ
マレー
マロン
マンガ
マーク
マーケ
マース
マーズ
マーチ
マート
ミカン
ミシン
ミスっ
ミステ
ミスト
ミスド
ミッド
ミドル
ミナミ
ミモザ
ミヤネ
ミュウ
ミュー
ミライ
ミラー
ミルク
ミンチ
ミント
ミーグ
ミート
ムース
ムード
ムーブ
ムーン
メイク
メイト
メイド
メイン
メガネ
メキシ
メジロ
メタル
メダカ
メダル
メチャ
メッキ
メッシ
メッセ
メット
メディ
メトロ
メモリ
メリー
メロン
メンズ
メンチ
メンツ
メンテ
メンマ
メール
モダン
モチベ
モテる
モデル
モラル
モルト
モンス
モンテ
モード
モール
ヤクザ
ヤサイ
ヤバい
ヤバく
ヤバイ
ヤマダ
ヤマト
ヤマハ
ヤリス
ヤル気
ヤロー
ヤング
ヤード
ユッケ
ユニバ
ユース
ユーロ
ヨダレ
ヨハネ
ヨーカ
ヨーロ
ライク
ライコ
ライス
ライズ
ライト
ライド
ライフ
ライブ
ライム
ライン
ライヴ
ラオウ
ラガー
ラジオ
ラスト
ラック
ラップ
ラバー
ラピュ
ラブホ
ラベル
ラムネ
ラララ
ラリー
ランク
ランチ
ランド
ランプ
ラヴィ
ラー油
リアル
リア充
リサー
リスク
リスト
リズム
リタイ
リッチ
リップ
リトル
リニア
リバー
リフト
リフレ
リボン
リュウ
リリー
リレー
リンク
リング
リンゴ
リンパ
リーグ
リース
リーズ
リーチ
リード
リーフ
リール
ルアー
ルック
ルパン
ルビー
ルフィ
ルーツ
ルート
ルーフ
ループ
ルーム
ルール
レイク
レイト
レイド
レイン
レオン
レギュ
レコー
レザー
レシピ
レジェ
レジン
レスト
レタス
レター
レッグ
レッズ
レッツ
レッド
レディ
レトロ
レバー
レフト
レベル
レモン
レンガ
レンジ
レンズ
レンタ
レント
レース
レート
レール
レーン
ロキソ
ロシア
ロスト
ロック
ロッテ
ロット
ロッド
ロビン
ロビー
ロフト
ロマン
ロング
ロース
ローズ
ロード
ロープ
ローマ
ロール
ローン
ワイド
ワイヤ
ワイン
ワカメ
ワゴン
ワサビ
ワタシ
ワンコ
ワンピ
ワーク
ワード
ワープ
ヲタク
ヴァイ
ヴァン
ヴィン
ヴィー
ヴェル
ヴォル
一休み
一通り
万が一
三ノ宮
上がっ
上がら
上がり
上がる
上がれ
上げる
上回る
上手い
上手く
下がっ
下がら
下がり
下がる
下げる
下さい
下さっ
下さり
下さる
下り坂
下ろし
下ネタ
下北沢
不可欠
不味い
不思議
与える
世の中
世田谷
並べる
中津川
中目黒
中継ぎ
串カツ
串焼き
丸の内
丸出し
丸投げ
乃木坂
久しく
久保田
久留米
乗せる
乗っけ
乗り場
乗り物
乗れる
乗ろう
事故っ
五十嵐
五反田
京セラ
人混み
今さら
今どき
今晩は
仕上げ
仕事前
仕事場
仕事柄
仕入れ
仕切り
仕掛け
仕立て
仕組み
仕込み
仕込ん
他人事
付き添
付ける
代々木
代わっ
代わり
代官山
仲良く
仲良し
任せる
伊勢丹
伊勢原
伊勢崎
休める
休もう
会える
会おう
伝える
伝わっ
伝わら
伝わり
伝わる
伸ばし
伸ばす
伸びる
似合い
似合う
似合っ
似合わ
住まい
住之江
佐々木
佐世保
佐久間
作れる
作ろう
使い道
使える
使おう
例えば
例える
信じる
倒れる
借りる
値上げ
値下げ
値引き
値打ち
倶楽部
停まっ
停める
健やか
健太郎
備える
傷つけ
働ける
優しい
優しく
儲かる
元ネタ
先ほど
兎に角
入り口
入れる
入れれ
入ろう
八ヶ岳
八千代
八王子
八百屋
八重洲
六本木
冬休み
冷える
冷たい
冷たく
冷やし
冷やす
凄かっ
凄まじ
出かけ
出せる
出そう
出よう
出れる
出会い
出会う
出会え
出会っ
出入り
出掛け
出来る
出来れ
出来事
出直し
出稼ぎ
出迎え
出逢い
分かっ
分から
分かり
分かる
分かれ
分かん
分ける
分厚い
切ない
切れる
初めて
初売り
刺さっ
刺さり
刺さる
刺し身
前倒し
前向き
前売り
剥がし
剥がれ
割れる
力強い
加わっ
加わり
加古川
助かっ
助かり
助かる
助ける
助っ人
励まし
動かさ
動かし
動かす
動ける
勘違い
勝ち点
勝てる
勝とう
勢揃い
化け物
北九州
北広島
北朝鮮
北海道
区切り
十和田
千代田
単なる
占い師
危うく
危ない
卵かけ
卵焼き
厚切り
厚揚げ
厳しい
厳しく
友だち
収まっ
収まり
収まる
取り戻
取り扱
取り組
取れる
取ろう
受かっ
受ける
口コミ
可哀想
可愛い
可愛く
台無し
各務原
合わせ
合言葉
吉祥寺
同い年
同じく
名乗っ
名乗る
名付け
名古屋
吐き気
向かい
向かう
向かっ
向ける
向こう
向日葵
吹き飛
吹っ飛
吹雪い
呆れる
呑める
味わい
味わう
味わえ
味わっ
味付け
和歌山
品切れ
品揃え
唐揚げ
唐辛子
問合せ
喜多方
喰らい
喰らう
喰らっ
嘘つき
四日市
固まっ
国分寺
垂らし
埋まっ
埋まり
埋まる
埋める
埋もれ
埼スタ
塩焼き
墓参り
増える
増やし
増やす
増やせ
壊れる
声かけ
声がけ
声出し
声掛け
売り場
売れる
変える
変えれ
変わっ
変わら
変わり
変わる
変われ
夏バテ
夏休み
夏祭り
夕暮れ
夕焼け
外れる
外回り
多かっ
多治見
夜ご飯
夜明け
大いに
大きい
大きく
大きな
大きめ
大した
大して
大丈夫
大久保
大喜び
大喜利
大好き
大嫌い
大忙し
大手町
大晦日
大牟田
大盛り
大笑い
大統領
大船渡
大袈裟
大通り
大食い
大騒ぎ
天の川
天ぷら
天王寺
天麩羅
太もも
太宰府
奥多摩
女の子
如何に
始まっ
始まら
始まり
始まる
始める
姪っ子
嬉しい
嬉しく
子ども
子育て
子連れ
学べる
宇和島
宇都宮
安かっ
安らか
安曇野
宜しく
宝くじ
宮古島
寂しい
寂しく
寄り添
寄り道
富士宮
富士見
富良野
寒かっ
寝かし
寝かせ
寝ぼけ
寝よう
寝れる
寝屋川
寝起き
対する
対バン
小さい
小さく
小さな
小さめ
小田原
小田急
小笠原
小豆島
小遣い
小野田
小金井
少ない
少なく
少なめ
尽きる
尽くし
尽くす
居心地
居眠り
居酒屋
届ける
山中湖
山登り
山盛り
岩見沢
岸和田
崩れる
川沿い
帰り道
帰り際
帰れる
帰ろう
幅広い
平打ち
年の瀬
年寄り
年明け
年越し
幼馴染
広がっ
広がり
広がる
広げる
座れる
引きこ
引きず
引っか
引っ張
引っ掛
引越し
強かっ
弾ける
当たっ
当たら
当たり
当たる
当たれ
当ては
当てる
役立つ
待たさ
待ち遠
後ほど
後ろ姿
後回し
後押し
従兄弟
御座い
御徒町
御殿場
心がけ
心地良
心強い
心掛け
心斎橋
心遣い
忘れる
忘れ物
忙しい
忙しく
怖かっ
思いの
思い出
思い浮
思い知
思える
怪しい
恋しい
恋しく
恐らく
恐ろし
恩返し
息抜き
恵まれ
恵比寿
悔しい
悔しく
悔やま
悔やみ
悩まさ
悪かっ
悲しい
悲しく
悲しみ
惜しい
想い出
愛する
感じる
慣らし
慣れる
憧れる
懐かし
我が家
我孫子
戦える
戻れる
手ぶら
手伝い
手伝っ
手作り
手入れ
手取り
手土産
手打ち
手抜き
手持ち
手放し
手書き
手洗い
手渡し
手続き
手遅れ
打てる
打合せ
抑える
投げる
投げ銭
折れる
抜ける
披露目
抱える
抱っこ
押さえ
持ち主
持ち帰
持てる
振り回
振り返
振る舞
捉える
捕まえ
捕まっ
捕まる
捨てる
掛かっ
掛かり
掛かる
掛ける
控えめ
推せる
揚げ物
揺れる
携わっ
撮れる
撮ろう
支える
支払い
支払っ
改めて
攻める
教える
教わっ
敢えて
数多く
整える
新しい
新しく
新居浜
新横浜
新発田
旅立ち
日にち
日の出
日テレ
日ハム
日差し
日帰り
日暮里
日替り
日本橋
日比谷
日焼け
旨かっ
早かっ
早稲田
早起き
明け方
明らか
明るい
明るく
明後日
映える
春休み
春巻き
春日井
春日部
昼ご飯
昼メシ
昼休み
昼過ぎ
晩ご飯
晩御飯
晴れる
晴れ間
暑かっ
暖かい
暖かく
暮らし
暮らす
曇り空
曲がっ
曲がり
曲がる
更なる
書ける
替え玉
最寄り
有り難
有楽町
有難い
有難う
朝ご飯
朝ドラ
朝焼け
朝風呂
木更津
末っ子
来よう
来れる
東スポ
東大阪
東村山
東海道
果たし
染まっ
染みる
柔らか
根っこ
桃太郎
案の定
桜木町
梅干し
極まり
極めて
楽しい
楽しく
楽しま
楽しみ
楽しむ
楽しめ
楽しん
楽ちん
横須賀
欠かせ
欲しい
欲しく
欲張り
歌える
歌舞伎
止まっ
止まら
止まり
止まる
止まれ
止める
正しい
正しく
武蔵野
歩ける
歯応え
歯磨き
段取り
比べる
比べれ
気さく
気づい
気づか
気づき
気づく
気づけ
気の毒
気まず
気付い
気付か
気付き
気付く
気付け
気仙沼
気合い
気持ち
気遣い
水道橋
水風呂
求める
汗だく
江ノ島
江戸川
決して
決まっ
決まら
決まり
決まる
決める
沁みる
河原町
油そば
油揚げ
泊まっ
泊まり
泊まる
泣ける
洗い物
津田沼
活かし
流れる
流れ星
流行っ
流行り
流行る
浅草橋
浮かび
浮かぶ
浮かれ
浮かん
浴びる
海沿い
海老名
海老天
浸かっ
浸かり
消える
涼しい
涼しく
混ざっ
混じっ
混ぜる
減らし
減らす
温かい
温かく
温まっ
温まり
温まる
温める
湯河原
満たさ
満たし
満たす
満タン
溜まっ
溜まり
溜まる
溢れる
溶かし
溶ける
滑らか
漏らし
演じる
潰れる
激うま
激しい
激しく
激アツ
激ウマ
激混み
濃いめ
濡れる
焚き火
無かっ
無くし
無くす
無けれ
焦がし
焼き肉
焼き芋
焼き鳥
焼ける
焼そば
照らし
煮付け
煮干し
煮込み
煮込ん
熱かっ
燃える
燃やし
爽やか
片付け
牛すじ
牛タン
物凄い
物凄く
独り言
猪苗代
猫好き
玉ねぎ
珍しい
珍しく
現れる
甘かっ
生かし
生きる
生き延
生き残
生き物
生まれ
生牡蠣
産まれ
甥っ子
田んぼ
申し訳
申込み
男の子
異なり
異なる
疲れる
痛かっ
痩せる
痺れる
癒やさ
癒やし
白バイ
百合子
皆んな
盆休み
盆踊り
目当て
目指し
目指す
目指せ
目立た
目立ち
目立っ
目立つ
目覚め
相模原
真っ先
真っ当
真っ暗
真っ白
真っ赤
真っ黒
真ん中
真面目
眠たい
眠れる
眩しい
眺める
着ける
着替え
知らせ
短パン
石神井
確かめ
祖父母
神保町
神奈川
神楽坂
福知山
秋刀魚
秋晴れ
秋葉原
程よい
程よく
税込み
稲刈り
稼げる
積み重
積もっ
積もり
積もる
穏やか
空き家
空っぽ
空振り
突き進
突っ走
立ち会
立ち向
立ち止
立ち直
立てる
笑える
等々力
筋トレ
答える
糸魚川
素晴ら
素通り
紫陽花
細かい
細かく
終える
終わっ
終わら
終わり
終わる
終われ
絵描き
続ける
締めく
繋がっ
繋がら
繋がり
繋がる
繋げる
繰り広
置き場
美しい
美しく
美味い
美味く
美味し
羨まし
習い事
習志野
考える
考えれ
考えろ
耐える
聞ける
聞こえ
聴ける
聴こえ
肉そば
肉まん
肌寒い
肩こり
肩書き
育てる
背負っ
腹ペコ
腹立つ
良かっ
良けれ
色んな
色合い
色違い
花びら
花言葉
苦しい
苦しく
苦しみ
苦しむ
苦しん
苫小牧
茅ヶ崎
茶漬け
草刈り
荒れる
菜の花
華やか
萎える
萩生田
落ちる
落ち着
落ち葉
落とさ
落とし
落とす
落書き
葉っぱ
蒸し暑
蕎麦屋
虎ノ門
行き先
行き来
行き着
行ける
行こう
行こっ
行なっ
街並み
裏切ら
裏切り
裾分け
褒める
西大寺
西新宿
要する
見える
見かけ
見せる
見つけ
見つめ
見よう
見れる
見上げ
見出し
見分け
見守っ
見守り
見守る
見届け
見応え
見掛け
見極め
見直し
見直す
見知り
見納め
見習い
見習っ
見舞い
見覚え
見込み
見返し
見送っ
見送り
見逃し
見通し
覚える
覚める
観よう
観れる
触れる
言い訳
言える
言おう
訪れる
訴える
詰まっ
詰まり
話せる
詳しい
詳しく
認める
誤魔化
読める
調べる
諦める
謎解き
豚まん
豚バラ
負ける
貯まっ
貯まる
貰える
買い得
買い物
買える
買おう
賃上げ
賑やか
賑わい
賑わっ
贈り物
走れる
走ろう
起きる
起きれ
起こさ
起こし
起こす
起こっ
起こら
起こり
起こる
超える
越える
足回り
踊り子
踏まえ
車好き
軒並み
転がっ
軽トラ
軽井沢
載せる
辛かっ
辞める
辞めろ
辿り着
迎える
近かっ
近づい
近づき
近づく
近づけ
逃げる
透き通
途切れ
通じる
通りす
逢える
週明け
進める
遅かっ
遅れる
遊べる
遊ぼう
過ぎる
過ごさ
過ごし
過ごす
過ごせ
道のり
道頓堀
遠かっ
遠回り
選べる
避ける
酎ハイ
酒好き
酒飲み
酔っぱ
酷かっ
酸っぱ
里帰り
重たい
重なっ
重なり
重なる
重ねる
野良猫
金儲け
金太郎
金持ち
釜揚げ
釣れる
鍋焼き
鍛える
長かっ
長らく
長持ち
長生き
長谷川
閉まっ
閉まる
閉める
開き直
開ける
間違い
間違え
間違っ
関する
関わっ
関わら
関わり
関わる
関ヶ原
降りる
降ろし
陽射し
障がい
隠れ家
集まっ
集まり
集まる
集まれ
集める
離れる
難しい
難しく
雨宿り
雨降り
雪かき
雰囲気
震える
面白い
面白く
頂ける
頂けれ
預かっ
預かり
頑張っ
頑張ら
頑張り
頑張る
頑張れ
頑張ろ
顔出し
願い事
風呂場
飛ばさ
飛ばし
飛ばす
飛び交
食い物
食える
食べよ
食べる
食べれ
食べ物
食らう
食らっ
飯田橋
飲み会
飲み屋
飲み物
飲める
飲もう
飼い主
飽きる
馬刺し
馴染み
馴染ん
高かっ
高まっ
高まり
高まる
高める
高円寺
髪の毛
鮮やか
鳴き声
鳴らし
鳴らす
鹿児島
黄色い
🌸🌸🌸
🎉🎉🎉
👊😆🎵
👍👍👍
👏👏👏
💓💓💓
💕💕💕
💖💖💖
💗💗💗
💢💢💢
💦💦💦
💪💪💪
🔥🔥🔥
😁😁😁
😂😂😂
😄😄😄
😅😅😅
😆🎵🎵
😆😆😆
😇😇😇
😊😊😊
😋🍴💕
😋😋😋
😍😍😍
😡😡😡
😢😢😢
😭😭😭
😱😱😱
😳😳😳
🙄🙄🙄
🙇🙇🙇
🙌🙌🙌
🙏🙏🙏
🤔🤔🤔
🤗🤗🤗
🤣🤣🤣
🤤🤤🤤
🤩🤩🤩
🤭🤭🤭
🥰🥰🥰
🥲🥲🥲
🥳🥳🥳
🥶🥶🥶
🥹🥹🥹
🥺🥺🥺
🫠🫠🫠
##-^)
##-⌒;
##...
##.^)
##000
##ABI
##ACE
##ACH
##ACK
##ACO
##ACT
##ADA
##AFE
##AGE
##AHA
##AKA
##AKE
##AKI
##AKO
##AKU
##ALL
##AMA
##AME
##AMI
##AMP
##ANA
##AND
##ANG
##ANN
##ANT
##ARA
##ARD
##ARE
##ARI
##ARK
##ARS
##ART
##ARU
##ASA
##ASE
##ASH
##ASS
##AST
##ATA
##ATE
##ATH
##ATO
##ATS
##AVE
##AWA
##AYA
##AZZ
##Cup
##DAY
##Day
##ECT
##ELL
##END
##ENT
##EOS
##ERA
##ERO
##ERS
##ESS
##EST
##ETS
##GBT
##GPT
##IAL
##ICA
##ICE
##ICK
##IDE
##IEC
##IFE
##IGH
##IKO
##ILE
##ILL
##ILM
##ILY
##IMA
##IME
##INE
##ING
##INK
##ION
##IRE
##IRO
##ISA
##ISE
##ISH
##ISO
##ISS
##IST
##ITE
##ITY
##IVA
##IVE
##MAN
##Man
##OBE
##OBI
##OCK
##OCO
##OME
##OND
##ONE
##ONG
##ORA
##ORE
##ORI
##ORO
##ORY
##OSE
##OSS
##OST
##OTA
##OTO
##OWN
##PER
##Pay
##Pro
##SON
##TER
##TON
##Tok
##UBE
##UCK
##UKE
##UKI
##UMA
##UMP
##UNA
##UND
##UNK
##URA
##URE
##URI
##URO
##USE
##USH
##UYA
##VEN
##VER
##\(^
##^)/
##^*)
##^;)
##`*)
##abo
##aby
##ace
##ach
##ack
##act
##ada
##ade
##adi
##ady
##afe
##age
##agi
##ail
##ain
##air
##aka
##ake
##aki
##ako
##aku
##ale
##alk
##all
##ama
##amb
##ame
##ami
##amp
##ana
##anc
##and
##ane
##ang
##ank
##anm
##ann
##ano
##ans
##ant
##ape
##app
##ara
##ard
##are
##ari
##ark
##arm
##ars
##art
##aru
##ary
##asa
##ase
##ash
##ask
##ass
##ast
##ata
##ate
##ath
##ato
##ats
##att
##aut
##ave
##awa
##aya
##azz
##bar
##ber
##ble
##bow
##box
##cal
##chi
##day
##der
##eam
##ear
##eat
##ect
##eda
##eek
##eel
##een
##eep
##eet
##elc
##ell
##end
##enn
##ens
##ent
##epp
##era
##ere
##erf
##ero
##ers
##ert
##ery
##ese
##esp
##ess
##est
##ews
##ext
##ger
##gle
##her
##hib
##his
##hop
##hot
##ial
##ian
##ica
##ice
##ich
##ick
##ico
##ics
##ict
##icy
##ide
##ids
##iel
##ier
##ies
##iew
##ife
##ifi
##ift
##ify
##igh
##ign
##ika
##ike
##iki
##iko
##ild
##ile
##ill
##ilm
##ily
##ime
##ina
##ind
##ine
##ing
##inj
##ink
##ino
##ins
##int
##iny
##ion
##ire
##iri
##irl
##ise
##ish
##iss
##ist
##ita
##ite
##ith
##ito
##its
##itt
##ity
##ive
##ize
##joy
##jpw
##lay
##les
##let
##lex
##ley
##log
##man
##mas
##maz
##mer
##ner
##nex
##ney
##now
##oad
##oba
##obe
##ock
##oco
##ode
##ods
##ody
##off
##oft
##oka
##oko
##old
##ole
##olf
##oll
##olo
##ome
##omi
##omo
##ond
##one
##ong
##ono
##ons
##ont
##ony
##ood
##ook
##ool
##oom
##oon
##oor
##oot
##ora
##ord
##ore
##ori
##ork
##orm
##orn
##oro
##ors
##ort
##oru
##ory
##ose
##osh
##oss
##ost
##ota
##ote
##oth
##oto
##ott
##oud
##oul
##oun
##oup
##our
##ous
##out
##ove
##own
##ows
##oya
##pay
##pen
##per
##pro
##ram
##rap
##rec
##ree
##ren
##rew
##rip
##rom
##rop
##ros
##row
##ter
##tok
##ton
##tra
##ube
##uch
##uck
##uit
##uji
##uka
##uke
##uki
##uku
##ula
##ull
##ult
##ume
##umi
##ump
##una
##une
##unk
##ura
##ure
##uri
##urn
##use
##ush
##ust
##ute
##uto
##uts
##uya
##vel
##ven
##ver
##vis
##way
##wit
##yle
##ype
##ˬᴗ͈
##⁠)⁠
##∇//
##∇^)
##≧∀≦
##○^)
##◡╹)
##。^)
##々しい
##々しく
##あえず
##あがり
##あがれ
##あわせ
##えもん
##かかっ
##かける
##かしい
##かしく
##かせる
##かろう
##がいも
##がかり
##がらせ
##がれる
##き出し
##くちゃ
##くわく
##ぐちゃ
##ぐるみ
##けりゃ
##ごたえ
##ごちゃ
##ごはん
##しかっ
##しから
##しくは
##しぐら
##しけれ
##しゃぶ
##しょい
##しん坊
##じゃが
##じゅう
##すまし
##たくし
##たまた
##ちこち
##ちゃん
##ちょい
##ちょく
##ちょこ
##っかり
##っきり
##っくり
##っこい
##っこり
##ったい
##ったり
##っちゃ
##っちょ
##っちり
##っとも
##っとり
##っぱい
##っぽん
##つける
##つない
##つぶし
##づくり
##どころ
##なかっ
##にぎり
##にゃく
##にゃん
##のぼり
##ひとり
##ぼっこ
##ぽーと
##まぐれ
##ましい
##ましく
##まして
##まつり
##まみれ
##まれる
##みらい
##むすび
##めちゃ
##もたれ
##やかし
##らしい
##らしく
##らせる
##わしい
##んなり
##アイス
##アウト
##アップ
##アブラ
##アリー
##アンス
##アント
##アンド
##アーズ
##ィーン
##イサー
##イチャ
##イック
##イッチ
##イヤル
##イルス
##イルド
##イング
##インズ
##イント
##イーツ
##ウェア
##ウェイ
##ウェー
##ウッド
##ウマイ
##ウンス
##ウント
##ウンド
##エスタ
##エスト
##エット
##エリー
##エンス
##エール
##オロギ
##オール
##カイブ
##カット
##カップ
##カフェ
##カリー
##カレー
##カード
##カーナ
##ガイモ
##ガキヤ
##ガシィ
##ガチャ
##ガルタ
##ガンダ
##ガード
##キャス
##キャラ
##キャン
##キュア
##キュン
##キュー
##キング
##キーラ
##ギュア
##ギング
##クシー
##クソン
##クター
##クチャ
##クトル
##クラゲ
##クロス
##グラス
##グラム
##ケット
##ケーキ
##ケース
##ケート
##ケード
##ゲット
##ゲーム
##コット
##コモコ
##コラボ
##コース
##コール
##コーン
##サイク
##サイズ
##サイト
##サイド
##サリー
##サロン
##サンド
##ザーズ
##ザード
##シウム
##シェル
##シスト
##シック
##シップ
##シャキ
##シャス
##シャル
##シャン
##シュー
##ショウ
##ション
##ショー
##シング
##ジアム
##ジカル
##ジック
##ジット
##ジャン
##ジャー
##ジュン
##ジョン
##ジング
##スキー
##スタル
##スタン
##スター
##ステム
##ステラ
##ストア
##ストラ
##ストロ
##ストン
##ズニー
##セット
##セデス
##セナル
##センス
##セント
##セージ
##ゼット
##ゼルス
##ソース
##ソード
##タイム
##タイン
##タウン
##タクシ
##タクタ
##タクト
##タバタ
##タブル
##タリー
##ターズ
##ターレ
##ターン
##ダイス
##ダウン
##ダンス
##ダース
##ダーズ
##ダード
##チック
##チャレ
##チャン
##チャー
##チュア
##チュウ
##チュー
##チョウ
##チョコ
##チンコ
##チーノ
##ッカリ
##ッカー
##ッキリ
##ッキン
##ッキー
##ックス
##ックマ
##ックリ
##ックル
##ッケン
##ッケー
##ッコリ
##ッコー
##ッサン
##ッサー
##ッシャ
##ッシュ
##ッショ
##ッシー
##ッスル
##ッスン
##ッセル
##ッセン
##ッタイ
##ッタリ
##ッター
##ッチェ
##ッチャ
##ッチョ
##ッチリ
##ッチン
##ッチー
##ッツァ
##ッティ
##ッテル
##ットル
##ットン
##ットー
##ッパイ
##ッパリ
##ッパー
##ッピー
##ッファ
##ッフル
##ッペン
##ッポロ
##ッポン
##ティア
##ティス
##ティブ
##ティン
##ティー
##テッド
##テージ
##テール
##ディア
##ディオ
##ディー
##デレラ
##デンス
##デント
##デート
##トゥー
##トウヨ
##トナム
##トリー
##トール
##ドッグ
##ドレー
##ドール
##ドーレ
##ナイト
##ナッツ
##ナップ
##ナブル
##ナリー
##ナルド
##ナント
##ナーズ
##ナーラ
##ナーレ
##ニアン
##ニエル
##ニオン
##ニカル
##ニスト
##ニズム
##ニック
##ニティ
##ニバル
##ニュー
##ニング
##ニーズ
##ニータ
##ヌーン
##ネシア
##ネット
##ネーズ
##ネーゼ
##ネード
##ノール
##ハウス
##バイス
##バック
##バリー
##バーグ
##バート
##バード
##バーン
##パクト
##パーク
##パール
##ヒカリ
##ヒョン
##ビティ
##ビュー
##ビング
##ピオン
##ピシャ
##ピスト
##ピック
##ピング
##ピース
##ファイ
##ファン
##ファー
##フィア
##フィフ
##フィラ
##フィン
##フィー
##フェス
##フォル
##フォン
##フォー
##フライ
##ブック
##ブラン
##ブラー
##ブレム
##プター
##プット
##プリカ
##プレイ
##プレス
##ヘッド
##ベット
##ベリー
##ベース
##ベート
##ペクト
##ペット
##ペーン
##ホーテ
##ホーム
##ホール
##ボイス
##ボード
##ボール
##ボーン
##ポンス
##ポート
##ポール
##マイズ
##マイド
##マセン
##マーク
##マーレ
##ミック
##ミット
##ミナル
##ミュー
##ミング
##ミール
##メイク
##メイト
##メイド
##メチャ
##メット
##メラン
##メンテ
##メント
##メール
##モニー
##モンド
##ャーズ
##ヤング
##ュース
##ューズ
##ューム
##ューロ
##ライス
##ライズ
##ライト
##ライナ
##ライブ
##ライラ
##ライン
##ラック
##ラリア
##ラルド
##ランカ
##ランス
##ランダ
##ランド
##ラーズ
##ラーリ
##リアス
##リアル
##リアン
##リアー
##リウム
##リオン
##リカリ
##リスト
##リズム
##リック
##リップ
##リティ
##リュー
##リンク
##リング
##リンコ
##リーグ
##リーズ
##リータ
##リート
##リーナ
##リーブ
##リーム
##リーン
##ルギー
##ルクル
##ルダー
##ルトラ
##ルトン
##ルーム
##レオン
##レクト
##レスト
##レッジ
##レット
##レンジ
##レンス
##レンデ
##レント
##レージ
##レーゼ
##レート
##レード
##レール
##ロイド
##ロウロ
##ロジー
##ロック
##ロット
##ロース
##ローズ
##ローチ
##ロード
##ローラ
##ロール
##ワイイ
##ワット
##ワリー
##ワーク
##ワード
##ワール
##ンクス
##ングル
##ンサー
##ンジャ
##ンジン
##ンジー
##ンダー
##ンチョ
##ントツ
##ントム
##ントン
##ンドゥ
##ンドウ
##ンドラ
##ンドル
##ンドン
##ンプン
##ヴァン
##ヴァー
##ヴェル
##ーっと
##ーカー
##ーキー
##ークス
##ークル
##ーグル
##ーサル
##ージェ
##ージャ
##ージュ
##ージョ
##ージー
##ースト
##ーズン
##ーター
##ーツク
##ートル
##ードル
##ーナス
##ーナツ
##ーバー
##ーパー
##ーブル
##ープル
##ーマル
##ーマン
##ーマー
##ームス
##ーラー
##ーリー
##ールズ
##ールド
##ーンズ
##ーーー
##上がっ
##上がら
##上がり
##上がる
##上がれ
##上げる
##下がっ
##下がり
##下ろし
##付ける
##入れる
##出せる
##切れる
##取れる
##右衛門
##合える
##合わせ
##変わり
##当たり
##抜ける
##掛かり
##掛ける
##換える
##敢えず
##明後日
##晴らし
##暮らし
##替える
##替わっ
##替わり
##立てる
##終わり
##締まり
##聞かせ
##苦しい
##落とし
##起こし
##込める
##込もう
##過ごし
##飛ばし
##👏👏👏
##💕💕💕
##💦💦💦
##💨💨💨
##🤣🤣🤣
(^^)
(^^;
)`*)
*\(^
..(^
1000
1100
1200
1242
1300
1400
1422
1500
1600
1700
1800
1980
2000
2002
2003
2006
2009
2010
2011
2012
2013
2014
2015
2016
2017
2018
2019
2020
2021
2022
2023
2024
2200
2500
3000
3500
4000
5000
6000
7000
8000
9000
;∀;)
ADHD
APEX
BASE
BLUE
BOOK
BOSS
BiSH
Blue
Brew
CAFE
CLUB
Cafe
City
Club
CoCo
DAZN
DeNA
EXPO
FEST
FIFA
GLAY
GOLD
GOOD
Good
HOME
IKEA
IMAX
JAZZ
Jazz
KDDI
KING
King
LGBT
LIFE
LINE
LIVE
LOVE
Life
Live
Love
Moto
NATO
NEWS
NEXT
NICE
NIKE
News
OPEN
Open
PART
Part
Perf
ROCK
Rock
SALE
SDGs
SHOP
SHOW
SLAM
SONY
STAR
STEP
Sait
Snow
Spon
Star
TEAM
TIME
TOHO
TOKY
TOUR
TSUT
TVer
Team
This
Time
Tour
Tube
Uber
WEST
WiFi
Wind
Xmas
YouT
ZERO
Zepp
^)/*
^-^)
aiko
back
bell
cafe
carp
chib
club
cons
cozy
days
feat
food
from
golf
good
have
hide
iPad
inst
kcal
kmix
life
live
love
mini
mont
news
nice
njpw
note
open
over
part
prec
seib
shop
show
star
team
this
time
with
work
wwww
your
zoom
∀`*)
∇`*)
▽`)/
▽`*)
✨✨✨✨
『`*)
あいさつ
あいにく
あきらめ
あくまで
あげよう
あじさい
あちこち
あっさり
あふれる
あぶない
あらあら
あらゆる
ありあり
ありがた
ありがと
ありつけ
あるいは
あれこれ
あんかけ
あんまり
いきなり
いただい
いただき
いただく
いただけ
いちいち
いちじく
いちばん
いっしょ
いったい
いったん
いっぱい
いっぺん
いまいち
いまさら
いやいや
いやはや
いよいよ
いろいろ
いろんな
いわゆる
うっかり
うっすら
うまうま
うまかっ
うらやま
うるさい
うるさく
うれしい
うんざり
おいおい
おいしい
おいしく
おおきに
おかしい
おかしく
おかしな
おしっこ
おしゃれ
おそらく
おっきい
おっしゃ
おっぱい
おにぎり
おはよう
おむすび
おもしろ
おもちゃ
おもろい
おんなじ
かえって
かかわら
かき揚げ
かしらん
かちゃん
かっちょ
かぼちゃ
かまぼこ
からあげ
から揚げ
かれこれ
かわいい
かわいく
かわゆい
がっかり
がっつり
がんばっ
がんばり
がんばる
がんばれ
がんばろ
きちんと
きっかけ
きっちり
きつかっ
きゅうり
ぎょうざ
ぎりぎり
くしゃみ
ください
くださっ
くださり
くださる
くだされ
くっきり
くっつい
くるくる
くれぐれ
ぐっすり
ぐるぐる
けしから
けっこう
こだわっ
こだわり
こだわる
こっそり
こってり
ことごと
こないだ
こんにち
こんばん
さいたま
ささやか
さっさと
さっそく
さっぱり
さっぽろ
さておき
さてさて
さまざま
さみしい
さよなら
さらなる
さわやか
ざっくり
しあわせ
しいたけ
しっかり
しっくり
しっとり
しつこい
しつこく
しばらく
しまなみ
しまむら
しみじみ
しゃべり
しょうが
しょうゆ
しょっぱ
しれっと
しんどい
しんどく
じっくり
じわじわ
すき焼き
すごかっ
すごーい
すすきの
すっかり
すっきり
すっごい
すっごく
すっぴん
すり抜け
すれ違い
すれ違う
すれ違っ
すんごい
すんなり
ずいぶん
ずぶ濡れ
ずーっと
せいぜい
せっかく
せんべい
ぜったい
ぜんざい
ぜんぜん
そうそう
そうめん
そこそこ
そっくり
そもそも
そりゃあ
それぞれ
そろそろ
たいした
たいへん
たい焼き
たくさん
たけのこ
たこ焼き
ただいま
ただただ
たっぷり
たどり着
たのしい
たのしみ
たまたま
たまーに
たらふく
だいすき
だいたい
だくさん
だし巻き
だんだん
ちっちゃ
ちゃおう
ちゃんこ
ちゃんと
ちゃーん
ちょいと
ちょうど
ちょっと
ちらほら
ちんちん
っちゃん
っぱなし
ついつい
つくづく
つけめん
つけよう
つながっ
つながり
つながる
つぶやい
つぶやき
てっきり
てっぺん
でしょう
でしょー
でっかい
とうとう
とことん
とっても
とっとと
ととのい
とにかく
ともあれ
ともかく
とろける
とろとろ
とんかつ
とんこつ
とんでも
どうこう
どうぶつ
どっぷり
どら焼き
どんぐり
どんどん
どんぶり
どんより
どん兵衛
なおさら
なかなか
なかろう
なくなっ
なくなり
なくなる
なけりゃ
なでしこ
なるべく
なるほど
にっぽん
にゃんこ
にんじん
にんにく
ぬくぬく
のんびり
はしゃい
はじまっ
はじまり
はじまる
はじめて
はたまた
はちみつ
はっきり
はやぶさ
ばっかり
ばったり
ばっちり
ばってん
ひさびさ
ひたすら
ひっくり
ひっそり
ひととき
ひとまず
ひな祭り
ひまわり
ひょっと
ひらがな
ひろゆき
ひんやり
びっくり
ぴったり
ふくしま
ふっくら
ふらふら
ふりかけ
ふるさと
ふれあい
ふわふわ
ふんわり
ぶち込ん
ぶっかけ
ぶっ壊れ
ぶっ飛ん
ぶつかっ
ぶつかり
ぶらぶら
ほうじ茶
ほうとう
ほうれん
ほしかっ
ほっこり
ほとんど
ほどほど
ほのぼの
ほろ酔い
ほんとう
ほんのり
ぼちぼち
ぼんやり
ぼーっと
ぽかぽか
まぁまぁ
まあまあ
まかない
まさしく
ましょう
ますます
まずまず
またまた
またもや
まだまだ
まっすぐ
まったく
まったり
まとまっ
まとめる
まろやか
みたらし
みちのく
むっちゃ
めざまし
めっちゃ
めでたい
めでとう
めんこい
めんたい
めんどい
めんどく
もぐもぐ
もしくは
もちもち
もちろん
もったい
もっちり
もっとも
もてなし
もともと
もふもふ
もらえる
もらえれ
もらおう
もりもり
やきそば
やきとり
やさしい
やすかっ
やっつけ
やっぱり
やばかっ
やまびこ
やめよう
やらかし
やらかす
やりとり
やり取り
やり直し
やんちゃ
ゆっくり
ゆったり
ゆるゆる
ようやく
よくよく
よさこい
よしもと
よっしゃ
よっぽど
よろしい
よろしく
らぁめん
らーめん
わがまま
わくわく
わざわざ
わたくし
わらび餅
アイアン
アイコン
アイテム
アイデア
アイドル
アイマス
アイロン
アウェイ
アウェー
アウター
アクスタ
アクセス
アクセル
アクティ
アクリル
アシスト
アストロ
アスパラ
アタック
アッパー
アップル
アツアツ
アトリエ
アドベン
アドレス
アドレナ
アナログ
アニソン
アニマル
アバター
アパレル
アパート
アビスパ
アピール
アフター
アフリカ
アボカド
アマゾン
アメブロ
アメリカ
アラート
アラーム
アリーナ
アルバム
アルファ
アルプス
アレンジ
アンカー
アングル
アンジュ
アンダー
アンティ
アンテナ
アンパン
アーティ
アーニャ
アーバン
イエロー
イギリス
イケイケ
イケメン
イタズラ
イタリア
イチオシ
イチロー
イニング
イノシシ
イベント
イマイチ
イマソラ
イメージ
イヤイヤ
イヤホン
イライラ
イラスト
イレブン
インカム
インスタ
インスト
インター
インチキ
インディ
イントロ
インナー
インフラ
インフル
インフレ
インプレ
イースト
ウィルス
ウィング
ウィーク
ウイルス
ウイング
ウェザー
ウェット
ウェーブ
ウエスト
ウォッチ
ウォーク
ウォーズ
ウキウキ
ウクレレ
ウルトラ
ウロウロ
ウンウン
ウーバー
エアコン
エイプリ
エクセル
エスコン
エナジー
エフエム
エプロン
エムバペ
エリート
エレクト
エンジン
エンタメ
エンター
エージェ
オアシス
オシャレ
オッケー
オナニー
オニオン
オファー
オフィス
オブジェ
オムレツ
オモチャ
オモロい
オランダ
オリエン
オリオン
オリーブ
オレンジ
オンリー
オースト
オーダー
オーナー
オーバー
オーブン
オープン
オールド
カウンセ
カウント
カクテル
カスタム
カステラ
カセット
カタカナ
カタログ
カタール
カターレ
カチカチ
カッター
カップル
カプセル
カボチャ
カミナリ
カラオケ
カラフル
カリカリ
カリスマ
カルピス
カロリー
カローラ
カワイイ
カワサキ
カンパチ
カンパー
カーテン
カーボン
ガソリン
ガタガタ
ガチガチ
ガッカリ
ガッツリ
ガラガラ
ガリガリ
ガレージ
ガンガン
ガンダム
ガンバレ
ガンプラ
ガーデン
ガールズ
キクラゲ
キチガイ
キチンと
キッカケ
キッチリ
キッチン
キツかっ
キムタク
キャスト
キャッチ
キャット
キャップ
キャノン
キャベツ
キャリア
キャリー
キャンプ
キュウリ
キュート
キューバ
キューブ
キラキラ
キリスト
キンキン
キングス
キーパー
ギックリ
ギャップ
ギャング
ギリギリ
クイック
クイーン
クエスト
クタクタ
クッキー
クライム
クラウド
クラウン
クラッチ
クラフト
クランク
クリエイ
クリック
クリップ
クリーム
クリーン
クルクル
クルーズ
クレヨン
クレープ
クレーム
クレーン
クローズ
クワガタ
クーポン
クーラー
グダグダ
グラタン
グラビア
グランド
グリッド
グリップ
グリーン
グルグル
グルテン
グループ
グルーヴ
グレート
グレード
グレープ
グローブ
グーグル
ケンミン
ケータイ
ケーブル
ゲッツー
ゲレンデ
ゲーセン
ゲーマー
コオロギ
コショウ
コストコ
コスプレ
コスモス
コットン
コツコツ
コミック
コミュニ
コメディ
コメンテ
コメント
コロコロ
コロッケ
コンソメ
コンテナ
コンテン
コントラ
コンビニ
コンプレ
コーディ
コーナー
コーヒー
コーラス
コールド
ゴキブリ
ゴミ出し
ゴミ拾い
ゴリゴリ
ゴロゴロ
ゴースト
ゴールド
サイクル
サイコロ
サイコー
サイダー
サイバー
サイレン
サウンド
サクサク
サタデー
サッカー
サックス
サッパリ
サッポロ
サバゲー
サポート
サマソニ
サミット
サムライ
サヨナラ
サラサラ
サンダル
サンダー
サンデー
サンフレ
サンプル
サンリオ
サーカス
サークル
サーバー
サービス
サーモン
シアター
シウマイ
シェイク
システム
シチュー
シナモン
シナリオ
シネマズ
シビック
シフォン
シャイン
シャトル
シャドウ
シャフト
シャワー
シャーシ
シャープ
シュガー
シューズ
シュート
シュール
ショコラ
ショック
ショット
ショップ
ショート
シリコン
シリーズ
シルバー
シルビア
シロップ
シンガー
シンクロ
シングル
シンフォ
シンプル
シンボル
シーシャ
シーズン
シールド
ジェット
ジオラマ
ジムニー
ジャスト
ジャック
ジャッジ
ジャパン
ジャンク
ジャンプ
ジャンボ
ジャンル
ジャージ
ジャーナ
ジュニア
ジュビロ
ジュース
ジョジョ
ジョッキ
ジョニー
ジョージ
ジワジワ
ジンギス
ジーンズ
スイッチ
スイング
スイーツ
スイート
スカウト
スカスカ
スカート
スガキヤ
スキップ
スキャン
スクエア
スクラン
スクール
スケボー
スケート
スケール
スコーン
スタイル
スタジオ
スタック
スタッド
スタッフ
スタミナ
スタメン
スタンス
スタンド
スタンプ
スターズ
スタート
スチーム
スッキリ
スティー
ステップ
ステーキ
ステージ
ストック
ストップ
ストライ
ストレス
ストロー
ストーブ
ストーン
スナック
スナップ
スパイク
スパイス
スパーク
スパート
スピーチ
スピード
スプレー
スプーン
スペイン
スペック
スペース
スポット
スポニチ
スポンジ
スポーツ
スマイル
スマート
スムーズ
スモーク
スライス
スライド
スライム
スリップ
スリーブ
スロット
スーパー
ズッキー
ズブズブ
ズルズル
セイコー
セカンド
セクシー
セクハラ
セックス
セミナー
セレクト
セレッソ
センサー
センター
センバツ
セーラー
セールス
ゼレンス
ソックス
ソニック
ソファー
ソワソワ
ソーラー
タイガー
タイトル
タイマー
タイムズ
タクシー
タケノコ
タックル
タトゥー
タピオカ
タマネギ
タリーズ
タルタル
タレント
タロット
タワマン
タワレコ
タンタン
タンパク
タンメン
ダイソー
ダイナミ
ダイハツ
ダイバー
ダッシュ
ダメージ
ダラダラ
ダンサー
ダントツ
ダンベル
ダービー
チェック
チェリー
チェンジ
チェーン
チケット
チップス
チャイナ
チャイム
チャック
チャット
チャンス
チャンプ
チャージ
チャート
チャーム
チューブ
チューン
チョイス
チョット
チラホラ
チンチン
ツィート
ツイート
ツッコミ
ツルツル
ツンデレ
テイスト
テキスト
テキトー
テキーラ
テックス
テナント
テーブル
ディスカ
ディスク
ディスコ
ディナー
ディープ
デイリー
デザイン
デザート
デジタル
デパート
デビュー
トナカイ
トラウト
トラウマ
トラック
トラップ
トラブル
トラベル
トランク
トランス
トランプ
トランポ
トリガー
トリック
トリプル
トリュフ
トリート
トレイル
トレイン
トレンド
トレード
トロッコ
トロトロ
トンカツ
トントン
トンネル
トースト
トータル
トーマス
ドキドキ
ドクター
ドタバタ
ドッキリ
ドトール
ドライブ
ドラクエ
ドラゴン
ドラッグ
ドラフト
ドラマー
ドラレコ
ドリップ
ドリフト
ドリンク
ドリーム
ドロップ
ドロドロ
ドローン
ドンキー
ドンドン
ドンマイ
ドン引き
ドーナツ
ドーミー
ナイター
ナゲット
ナンバー
ニコニコ
ニッポン
ニャンコ
ニヤニヤ
ニュース
ニュート
ニューヨ
ニンジャ
ニンニク
ヌードル
ネクタイ
ネタバレ
ネトウヨ
ネトフリ
ネパール
ノウハウ
ノスタル
ノリノリ
ノンアル
ノーマル
ハァハァ
ハイパー
ハイブリ
ハザード
ハチミツ
ハッキリ
ハッシュ
ハッピー
ハマスタ
ハラハラ
ハンカチ
ハンター
ハンドル
ハンバー
ハンマー
ハードル
ハーバー
ハーレー
バイデン
バイト先
バイパス
バウンド
バキバキ
バタバタ
バチバチ
バックス
バッター
バッチリ
バラバラ
バランス
バラード
バリウム
バリバリ
バリュー
バルーン
バレバレ
バンコク
バンザイ
バンダイ
バンバン
バンパー
バーガー
バースト
バーチャ
パイセン
パウダー
パクチー
パクパク
パジャマ
パソコン
パターン
パチスロ
パチンコ
パトカー
パドック
パニック
パノラマ
パラパラ
パリパリ
パレット
パレード
パワハラ
パワフル
パンパン
パーカー
パーソナ
パーティ
パープル
パーラー
ヒヤヒヤ
ヒリヒリ
ヒルトン
ヒレカツ
ヒロイン
ヒーター
ヒーロー
ビジター
ビジネス
ビジョン
ビストロ
ビタミン
ビックリ
ビニール
ビリヤニ
ビレッジ
ビーコル
ビートル
ビーナス
ピカピカ
ピクミン
ピクルス
ピストン
ピッタリ
ピッツァ
ピンポン
ピーター
ピーマン
ファイト
ファイブ
ファイル
ファイン
ファミマ
ファンタ
ファンミ
ファーム
ファール
フィット
フィルム
フェイク
フェイス
フェスタ
フェリー
フォルム
フォロバ
フォロー
フォント
フォーク
フォース
フォーム
フクロウ
フライト
フライド
フラッグ
フラット
フラフラ
フラワー
フランク
フランス
フリーズ
フルーツ
フルート
フレンズ
フレンチ
フレンド
フレーズ
フレーム
フロント
フロート
フワフワ
ブチ切れ
ブライト
ブラウン
ブラジル
ブラック
ブラブラ
ブラボー
ブランコ
ブランチ
ブランド
ブリッジ
ブリッツ
ブリーチ
ブルース
ブルーム
ブレイク
ブレンド
ブレーキ
ブレード
ブロック
ブンブン
ブースト
プッシュ
プライス
プライド
プライム
プラチナ
プラット
プリウス
プリプリ
プリンス
プリント
プルプル
プレイス
プレゼン
プレミア
プレート
プレーン
プログラ
プロジェ
プロスピ
プロセス
プロフェ
プロレス
プーチン
プードル
ヘッダー
ヘトヘト
ヘルシー
ヘルニア
ヘルパー
ヘロヘロ
ベイビー
ベガルタ
ベテラン
ベトナム
ベランダ
ベルギー
ベロベロ
ベーグル
ベーコン
ペイント
ペッパー
ペペロン
ペヤング
ペンギン
ペースト
ペーパー
ホイップ
ホイール
ホクホク
ホッコリ
ホッピー
ホルダー
ホルモン
ホワイト
ホンモノ
ホークス
ホーリー
ボクサー
ボコボコ
ボチボチ
ボックス
ボディー
ボリュー
ボロボロ
ボンバー
ボーイズ
ボーカル
ボーダー
ボーッと
ボーナス
ポイント
ポイ捨て
ポカポカ
ポケット
ポケモン
ポスター
ポツポツ
ポテサラ
ポルシェ
ポンコツ
ポンポン
ポーカー
マイクロ
マイケル
マイナス
マイナー
マイルド
マインド
マウント
マカロニ
マカロン
マガジン
マクロス
マシマシ
マシーン
マジカル
マジック
マスコミ
マスゴミ
マスター
マッキー
マックス
マッシュ
マッスル
マッタリ
マッチョ
マフィン
マフラー
マラソン
マリノス
マリーナ
マリーン
マルシェ
マルハン
マンゴー
マーカー
マーキー
ミサイル
ミスター
ミスチル
ミッキー
ミックス
ミニカー
ミネラル
ミュージ
ミュート
ミラクル
ミリオン
ミルキー
ミーグリ
ムカつく
ムービー
ムーミン
メキシコ
メジャー
メッシュ
メッチャ
メディア
メドレー
メニュー
メモリー
メリクリ
メリット
メロディ
メンエス
メンタル
メンバー
メンヘラ
メーカー
メーター
メートル
モザイク
モチモチ
モチーフ
モニター
モノクロ
モノマネ
モバイル
モフモフ
モヤモヤ
モリモリ
モルック
モロッコ
モンキー
モンゴル
モンスト
モンハン
モーター
ヤクルト
ヤバかっ
ヤフオク
ヤマザキ
ヤンキー
ユニオン
ユニクロ
ユニット
ユニバー
ユニーク
ユーザー
ユーミン
ユーモア
ヨコハマ
ヨドバシ
ヨロシク
ライオン
ライター
ライダー
ライナー
ライバル
ライバー
ラウンジ
ラウンド
ラグビー
ラケット
ラジコン
ラスボス
ラッキー
ラッシュ
ラッシー
ラビット
ラピュタ
ラブラブ
ランタン
ランダム
ランナー
ラーメン
リコイル
リコリス
リコール
リサーチ
リスナー
リセット
リゾット
リゾート
リターン
リッター
リットル
リトグリ
リハビリ
リバティ
リビング
リピート
リベラル
リベンジ
リポート
リメイク
リモコン
リモート
リュック
リリイベ
リリース
リリーフ
リンガー
リーダー
リーマン
ルンルン
ルーキー
レイソル
レイヤー
レガシー
レクサス
レコード
レシート
レジャー
レスラー
レッスン
レトルト
レノファ
レビュー
レプリカ
レポート
レンコン
レンタル
レーサー
レーザー
レーズン
レーダー
ロアッソ
ロイヤル
ロケット
ロッカー
ロッキン
ロッキー
ロックン
ロボット
ロマンス
ロンドン
ローカル
ロースト
ローソン
ローラー
ワイパー
ワイヤー
ワイルド
ワイワイ
ワガママ
ワクチン
ワクワク
ワタクシ
ワックス
ワッフル
ワンタン
ワンダー
ワークス
ワールド
ヴァイオ
一人一人
下手くそ
乗っかっ
乗っ取ら
乗り入れ
乗り切っ
乗り切り
乗り切る
乗り切れ
乗り心地
乗り換え
乗り継ぎ
乗り越え
乗り込ん
亡くなっ
亡くなら
亡くなり
亡くなる
仕上がっ
仕上がり
仕事帰り
仕方ない
仕方なく
付き合い
付き合う
付き合っ
付き添い
休み明け
会津若松
作り上げ
使い分け
値上がり
入れよう
入れ替え
冷え込み
冷え込ん
凄まじい
出かける
出会える
出掛ける
切り上げ
切り抜き
切り替え
初日の出
勝ち越し
危なかっ
取り上げ
取り付け
取り入れ
取り出し
取り寄せ
取り急ぎ
取り戻し
取り戻す
取り扱い
取り消し
取り直し
取り組み
取り組む
取り組ん
取り置き
取り返し
受け付け
受け入れ
受け取っ
受け取り
受け取る
受け止め
口当たり
可愛いい
可愛いく
可愛かっ
合わせる
向き合い
向き合う
向き合っ
向こう側
吸い込ま
吹き出し
味わえる
呼びかけ
呼び出し
噛み締め
土砂降り
垂れ流し
売り上げ
売り切れ
変えよう
変わり目
夜ごはん
夜更かし
大きかっ
大人しく
大当たり
好き勝手
好き嫌い
始めよう
嫌がらせ
嬉しかっ
寄り添う
寄り添っ
寝過ごし
少なかっ
少なから
差し上げ
差し入れ
巻き込ま
巻き込ん
引きずり
引き上げ
引き出し
引き分け
引き取り
引き寄せ
引き換え
引き継い
引き継ぎ
引き続き
引き締め
引き込ま
引き返し
引っ張っ
引っ張ら
引っ張り
引っ張る
引っ越し
張り切っ
弾き語り
当たり前
待ち受け
御茶ノ水
心地よい
心地よく
心地良い
心当たり
忙しかっ
思いつい
思いつか
思いつき
思いの外
思いやり
思い入れ
思い出さ
思い出し
思い出す
思い出せ
思い切っ
思い切り
思い浮か
思い立っ
思い込み
思い込ん
恐ろしい
恐ろしく
恥ずかし
悩ましい
情けない
惜しかっ
愛おしい
懐かしい
懐かしく
成り立っ
戸締まり
手のひら
打ち上げ
折り返し
抜け出し
抱きしめ
押し付け
持ち上げ
持ち出し
持ち帰っ
持ち帰り
持ち歩い
持ち込み
持ち込ん
振り付け
振り回さ
振り返っ
振り返り
振り返る
振る舞い
掛け流し
揚げたて
散らかし
日替わり
昨日今日
昼ごはん
晩ごはん
暇つぶし
書き込み
有り難い
有り難う
朝ごはん
果たして
柔らかい
柔らかく
梅雨明け
楽しかっ
楽しめる
楽しもう
欲しかっ
歌舞伎町
気まぐれ
泣く泣く
涼しかっ
清々しい
湯上がり
滅茶苦茶
滑り込み
炊き込み
無くなっ
無くなり
無くなる
無理やり
無理矢理
無茶苦茶
無駄遣い
焼きそば
焼きたて
燃え尽き
片付ける
独り占め
玉子焼き
生きよう
生き残っ
生まれる
生まれ変
生み出し
生み出す
申し上げ
申し込み
申し込ん
痛み止め
盛り上げ
盛り付け
目覚まし
目覚める
相応しい
真っ直ぐ
着ぐるみ
知り合い
知り合っ
積み上げ
積み込み
積み重ね
突っ込ま
突っ込み
突っ込む
突っ込ん
立ち上げ
立ち寄っ
立ち寄り
立ち食い
立ち飲み
立て続け
素晴らし
組み立て
締め切り
繰り返し
繰り返す
置き換え
美しかっ
美味かっ
美味しい
美味しく
羨ましい
考えよう
聞こえる
聴こえる
肉じゃが
胃もたれ
自由が丘
落ち着い
落ち着か
落ち着き
落ち着く
落ち着け
落ち込ん
蒸し暑い
行きつけ
褒め言葉
見かける
見せかけ
見せつけ
見つかっ
見つから
見つかり
見つかる
見つける
見どころ
見合わせ
見当たら
見積もり
見落とし
言い合う
詰め込ん
話しかけ
話し合い
誤魔化し
買い上げ
買い出し
買い占め
買い取り
買い替え
買い求め
貸し切り
貼り付け
赤ちゃん
走り回っ
踏ん張っ
踏ん張り
辿り着い
辿り着け
追いかけ
追いつい
追いつか
追い詰め
追い越し
追い込ま
追い込み
追い込ん
追っかけ
送り出し
通り越し
通り過ぎ
遅ればせ
過ごせる
過ごそう
酔っ払い
酔っ払っ
閉じ込め
間に合い
間に合う
間に合っ
間に合わ
間違える
阿佐ヶ谷
難しかっ
雨上がり
面白かっ
頑張れる
頑張れー
頑張ろう
頼もしい
飛び出し
飛び込み
飛び込ん
食べよう
食べれる
食べ応え
食べ歩き
食べ比べ
食べ納め
飲み干し
飲み比べ
香ばしい
駆けつけ
駆け抜け
駆け込み
高田馬場
鯉のぼり
😂😂😂😂
😭😭😭😭
🤣🤣🤣🤣
##(^^)
##))))
##----
##-^)/
##....
##ACHI
##ANCE
##APAN
##ASHI
##Book
##ETAL
##FFEE
##IECE
##IGHT
##INAL
##IRST
##IRTH
##LIVE
##OSHI
##REAM
##ROOM
##WWWW
##^^*)
##____
##able
##achi
##adio
##agon
##ahoo
##aker
##akut
##ally
##amag
##amen
##ance
##ange
##anks
##ants
##apan
##appy
##aren
##arin
##aseb
##ashi
##ason
##atch
##ater
##atsu
##awks
##ball
##bema
##cafe
##eath
##edia
##ella
##ello
##emon
##ence
##ents
##erry
##espa
##esta
##fect
##flix
##fter
##hiba
##hima
##hiru
##hone
##hoto
##ichi
##iday
##ideo
##ight
##ikon
##inal
##ince
##ings
##inja
##ions
##irex
##irls
##irst
##irth
##ishi
##itch
##ited
##ival
##iver
##ixel
##iziU
##ject
##land
##lect
##line
##ling
##ment
##mile
##news
##ning
##ochi
##oday
##odel
##offe
##okka
##okoh
##okyo
##onda
##ooth
##orks
##orld
##orts
##oshi
##otte
##ound
##ount
##ours
##ouse
##ovel
##over
##ower
##port
##raft
##rain
##reak
##ream
##reat
##reen
##reet
##ress
##ring
##rist
##roid
##room
##ross
##saka
##stag
##tern
##ters
##tube
##uber
##uchi
##ucks
##ucky
##udio
##uice
##ulse
##unch
##uper
##urry
##ushi
##usic
##vent
##very
##weet
##wwww
##yama
##ycle
##yoto
##ʬʬʬʬ
##̥̥̥̥
##━━━━
##▽'*)
##◇^;)
##かしかっ
##ごしらえ
##たらかし
##ちゃって
##っちゃけ
##っちゅう
##もろこし
##らっしゃ
##ァァァァ
##アアアア
##アリング
##アルプス
##イアント
##イキタイ
##イスキー
##イスター
##ウンサー
##キュール
##クション
##クトリー
##クーヘン
##グレード
##コーヒー
##サイクル
##サイタル
##ササイズ
##サンブル
##シデント
##シャイン
##シュラン
##ショップ
##ショナル
##ジェスト
##ジメント
##ジュアル
##ジュール
##スタイル
##スタント
##スタード
##ストップ
##ストリー
##スパイア
##スペース
##ゼンチン
##ソニック
##ソーマン
##タリティ
##タリング
##タージュ
##ダリング
##チュアル
##ッカーズ
##ッキング
##ッケージ
##ッコリー
##ッシャー
##ッション
##ッシング
##ッピング
##ッフィー
##ティック
##ティバル
##ティング
##ティーン
##テナンス
##テンボス
##テーブル
##ディング
##トゥーン
##トリック
##トロール
##ナップル
##ナドーム
##ニックス
##ニッシュ
##ノミクス
##バサダー
##バックス
##バーガー
##ビッシュ
##ファルト
##フィック
##フィール
##フェクト
##フェスト
##フェンス
##フォーマ
##フォーム
##フルーツ
##ブリック
##プリート
##プレッソ
##ベーター
##ペチーノ
##ポイント
##マシマシ
##マスター
##マックス
##ミクロン
##ミントン
##メリット
##ュッフェ
##ューサー
##ライター
##ラーメン
##リッシュ
##リティー
##リーマン
##ルフィン
##レックス
##レーター
##ローラー
##ワッサン
##ングラス
##ンジャー
##ンジョン
##ントリー
##ーキョー
##ーキング
##ーグルト
##ーション
##ージャス
##ージャー
##ージョン
##ージング
##ースター
##ーナッツ
##ールーム
##ーーーー
##👏🏻👏🏻
##😭😭😭😭
((((;
(^-^)
(^.^)
(^^)/
(^^;)
)))))
*^^*)
-`).。
10000
15000
20000
20220
20230
ABEMA
Abema
Aichi
Annex
Apple
BLACK
Black
CROSS
Dream
Drink
ENEOS
EXILE
FIFAW
FIRST
Girls
GoPro
HAPPY
HONDA
HOUSE
Happy
JAPAN
Japan
Kyoto
Light
Lucky
MISIA
MUSIC
Merry
Music
NIGHT
Night
Nikon
NiziU
Osaka
PARCO
Power
RIZIN
STARD
START
STEPN
SUPER
Smart
Suica
Super
TOKYO
Thank
Today
Tokyo
Tweet
UberE
Video
WOWOW
Watch
World
YOSHI
Yahoo
^◇^;)
`)...
bayfm
happy
japan
kanay
lovef
lovel
lunch
music
night
photo
prime
ramen
shind
start
style
super
tokyo
tweet
wwwww
ᴗ͈ˬᴗ͈
あたたかい
あったかい
あったかく
あらためて
ありがたい
ありがたく
ありがとう
ありのまま
いただける
いただけれ
いらっしゃ
うちごはん
うれしかっ
えげつない
おいしかっ
おっしゃっ
おっしゃる
おとなしく
おもしろい
おもろかっ
お好み焼き
かわいかっ
かわいそう
かんぱーい
がんばろう
がんばろー
くださーい
ことごとく
こんにちは
こんにちわ
こんにゃく
こんばんは
こんばんわ
さくらんぼ
さようなら
さりげなく
しゃあない
しょっぱい
しんどかっ
じゃがいも
じゃんけん
すばらしい
たどり着い
たのしかっ
ちっちゃい
ちゃっかり
ちゃんねる
ちゃんぽん
ちょうだい
ちょこっと
ちょっぴり
てらっしゃ
てんこ盛り
とりあえず
なつかしい
なりすまし
ぬいぐるみ
ひたちなか
ひつまぶし
ふくらはぎ
ふさわしい
ぶっちゃけ
まちづくり
まっしぐら
まんじゅう
ものすごい
ものすごく
ものづくり
やっとこさ
ややこしい
よっしゃー
よろしけれ
ららぽーと
わっしょい
アイディア
アイランド
アウトドア
アカウント
アカデミー
アクション
アクセント
アクティブ
アスリート
アドバイス
アナウンス
アニメイト
アネックス
アヒージョ
アプローチ
アマチュア
アミューズ
アメリカン
アラフィフ
アルコール
アルバイト
アレルギー
アンケート
アンコール
アントニオ
アーカイブ
アーケード
アーセナル
アーモンド
イタリアン
インターン
インテリア
インパクト
インパルス
インプット
インボイス
イーグルス
ウィスキー
ウイスキー
ウインカー
ウインナー
ウェルカム
ウォーカー
ウォーター
ウクライナ
エアポート
エアリアル
エイプリル
エネルギー
エピソード
エリザベス
エンジェル
エンジニア
エンジョイ
エンゼルス
エントリー
エンドレス
エンブレム
オフサイド
オプション
オホーツク
オマージュ
オミクロン
オムライス
オリジナル
オリックス
オーシャン
オーディオ
オードブル
カウンター
カジュアル
カスタード
カテゴリー
カフェイン
カフェオレ
カブトムシ
カメラマン
カルチャー
カレンダー
カントリー
カンパニー
カンパーイ
カーニバル
カーペット
ガーリック
キックオフ
キャスター
キャッシュ
キャバクラ
キャプテン
キャラバン
キャラメル
キャンセル
キャンディ
キャンドル
キャンパス
キャンパー
キングダム
キーボード
ギタリスト
ギャラリー
ギャンブル
クオリティ
クッキング
クッション
クラシック
クラスター
クラッシュ
クリスタル
クリスマス
クリニック
クリーナー
クリーミー
クレイジー
クレジット
クロアチア
クローバー
グラウンド
グランパス
グランプリ
グローバル
ケチャップ
ゲーミング
ココナッツ
コスタリカ
コンクール
コンサート
コンセプト
コンセント
コンタクト
コンテスト
コンテンツ
コンパクト
コンピュー
コースター
コーチング
コーディネ
ゴールデン
サイゼリヤ
サイレント
サテライト
サバイバル
サプライズ
サポーター
サンキュー
サングラス
サンセット
サントリー
サンライズ
サーキット
サーフィン
シェルター
シャッター
シャンパン
シャンプー
ショルダー
シルエット
シンデレラ
シーサイド
シーフード
ジェラート
ジェンダー
ジャイアン
ジャガイモ
ジャグラー
ジャケット
ジャスミン
ジャニーズ
ジャングル
ジャンケン
ジュエリー
ジューシー
ジョイフル
ジョギング
ジンジャー
スクリーン
スクワット
スクーター
スタジアム
スタンバイ
スターダム
スティック
ステッカー
ステンレス
ステークス
ステータス
ストライク
ストラップ
ストリート
ストリーム
ストレッチ
ストレート
ストロング
ストーカー
ストーリー
スニーカー
スヌーピー
スパイシー
スパイダー
スパゲティ
スピーカー
スプリング
スプリント
スペシャル
スポンサー
スミマセン
スムージー
スライダー
スリランカ
スワローズ
ズッキーニ
セッション
セラピスト
セレモニー
セントラル
セントレア
ソメイヨシ
ソーシャル
ソーセージ
タイガース
タイミング
タイムリー
タブレット
ターゲット
ターミナル
ダイエット
ダイニング
ダイビング
ダイレクト
チャレンジ
チャンネル
チャンポン
チャーハン
チューハイ
ツイッター
ツーリング
ティッシュ
ティラミス
テクニック
テレワーク
テロリスト
テンション
ディズニー
ディーゼル
ディーラー
デザイナー
デトックス
デフォルト
デメリット
デラックス
デリバリー
トッピング
トライアル
トリニータ
トリミング
トレーナー
トレーラー
トロフィー
ドラえもん
ドライバー
ドライヤー
ドラゴンズ
ドルフィン
ドンピシャ
ナチュラル
ナポリタン
ニュアンス
ネガティブ
ネックレス
ネーミング
ハイキング
ハイライト
ハプニング
ハムスター
ハリウッド
ハロウィン
ハワイアン
ハンバーグ
ハーモニー
バイオリン
バイキング
バスケット
バタフライ
バッテリー
バラエティ
バンテリン
バージョン
バースデー
バーチャル
パイロット
パスポート
パスワード
パッケージ
パッション
パトロール
パフォーマ
パブリック
パラダイス
パンケーキ
パーキング
パーセント
パーソナル
パーティー
パートナー
ビジュアル
ビュッフェ
ビリヤード
ビートルズ
ピアニスト
ピカチュウ
ピクニック
ピスタチオ
ピッチャー
ピッチング
ピーナッツ
ファイザー
ファイター
ファイナル
ファイヤー
ファミコン
ファミリー
ファミレス
ファースト
フィギュア
フィジカル
フィッシュ
フィナーレ
フィリピン
フィルター
フィーバー
フィールド
フェラーリ
フェンダー
フォレスト
フォロワー
フォーカス
フォーラム
フットサル
フライデー
フライパン
フライヤー
フライング
フラッシュ
フレッシュ
フレーバー
ブラザーズ
ブラッシュ
ブロマイド
ブーイング
ブースター
ブーメラン
プラモデル
プリキュア
プリンセス
プリンター
プレイヤー
プレゼント
プレミアム
プレーヤー
プログラム
プロダクト
プロテイン
プロポーズ
ヘッドホン
ヘルメット
ベアリング
ベルマーレ
ベーカリー
ペアリング
ペンライト
ホタルイカ
ボウリング
ボクシング
ボリューム
ボンネット
ボーリング
ポジション
ポジティブ
ポタージュ
ポルトガル
ポーランド
マイスター
マウンテン
マグネット
マシュマロ
マスカット
マスコット
マスターズ
マスタード
マッサージ
マッチング
マニアック
マニュアル
マヨネーズ
マリオット
マリナーズ
マリーンズ
マンション
マンホール
マーケット
ミシュラン
ミステリー
ミッション
ミッフィー
ミニチュア
メッセージ
メルセデス
メロディー
メンチカツ
モノレール
モンスター
モーション
モーニング
ユニコーン
ユニバース
ヨーグルト
ヨーロッパ
ライオンズ
ライセンス
ラッピング
ラベンダー
ランキング
ランドセル
ランドリー
ランニング
ラヴィット
リカバリー
リクエスト
リサイクル
リサイタル
リスペクト
リハーサル
リバウンド
リピーター
リフォーム
リラックス
ルーティン
レイアウト
レインボー
レギュラー
レクチャー
レコーダー
レジェンド
レストラン
レスリング
レディース
レモネード
レンジャー
レンタカー
レントゲン
レーシング
ロキソニン
ロータリー
ワイナリー
ワイヤレス
ワークマン
ヴィッセル
ヴェルディ
一人暮らし
乗り換える
仕事終わり
入れ替わり
出来上がっ
出来上がり
初めまして
取り敢えず
受け入れる
召し上がっ
召し上がり
可愛いかっ
可愛らしい
問い合わせ
引きこもり
引っかかっ
引っかかる
当てはまる
待ち合わせ
待ち遠しい
微笑ましい
思いっきり
恥ずかしい
恥ずかしく
打ち合わせ
明日明後日
極まりない
盛り上がっ
盛り上がり
盛り上がる
盛り上げる
盛り合わせ
立ち上がっ
立ち上がり
素晴らしい
素晴らしく
組み合わせ
締めくくり
美味しかっ
美味しゅう
腹ごしらえ
舞いあがれ
言い聞かせ
詰め合わせ
通りすがり
風呂上がり
食いしん坊
👏👏👏👏👏
😭😭😭😭😭
🤣🤣🤣🤣🤣
##//∇//
##ATION
##FIRST
##JAPAN
##Japan
##TONES
##acing
##agawa
##akura
##allow
##amily
##amoto
##arden
##asaki
##assic
##atGPT
##ation
##ayama
##bucks
##ebook
##ecial
##esign
##etime
##etter
##gress
##icial
##igata
##inawa
##indle
##ining
##ition
##ittle
##ivers
##japan
##lease
##mazon
##offee
##ograp
##oogle
##otify
##riend
##stars
##tuber
##umber
##witFi
##witch
##zuoka
##エーション
##ケーション
##ゼーション
##ッティング
##テーション
##ディション
##デーション
##ナイテッド
##ニューアル
##ネーション
##フィールド
##フォルニア
##ベーション
##ボクシング
##マーケット
##メンタリー
##メーション
##レーション
##ヴェリック
##ーナメント
##ーーーーー
(*^^*)
(^◇^;)
Amazon
Aqours
COFFEE
Coffee
FAMILY
Google
LAWSON
Liella
PayPay
Summer
Switch
TikTok
TwitFi
Vtuber
YAMAHA
\(^^)/
chibal
coffee
consad
docomo
iPhone
musicj
paypay
radiko
shorts
silent
spulse
travel
wwwwww
いらっしゃい
いらっしゃっ
いらっしゃる
うらやましい
おもしろかっ
ぐちゃぐちゃ
ごちゃごちゃ
しゃぶしゃぶ
しょっちゅう
ちょいちょい
ちょくちょく
ちょこちょこ
てらっしゃい
てらっしゃる
とうもろこし
なんちゃって
ひっくり返し
みなとみらい
むちゃくちゃ
めちゃくちゃ
めちゃめちゃ
アイドリング
アウトプット
アウトレット
アクセサリー
アシスタント
アスファルト
アップデート
アドレナリン
アナウンサー
アフタヌーン
アルゼンチン
アルファード
アンサンブル
アンティーク
アントラーズ
アンバサダー
アンパンマン
アーティスト
イングランド
インスタント
インストール
インスパイア
インタビュー
インターバル
インドネシア
インフルエン
ウォーキング
エクスプレス
エスプレッソ
エレベーター
エンターテイ
エンディング
エントランス
エージェント
オフィシャル
オリンピック
オーガニック
オークション
オーケストラ
オートミール
オープニング
カスタマイズ
カラーリング
カルボナーラ
ガチャガチャ
キャッチャー
キャラクター
キャンピング
キャンペーン
クオリティー
クライアント
クラクション
クリエイター
クリーニング
クロワッサン
ケンタッキー
ゲストハウス
コミュニティ
コレクション
コワーキング
コンクリート
コンサドーレ
コントラスト
コントロール
コンピュータ
コンプリート
コーティング
サイクリング
サラリーマン
サンシャイン
サンドイッチ
シャキシャキ
ショッピング
シンガポール
シークレット
ジャイアンツ
ジャイアント
スカイライン
スカーレット
スクランブル
スケジュール
スタッドレス
スタンダード
ステーション
ストロベリー
スノーボード
スパゲッティ
スーツケース
セキュリティ
セッティング
セットアップ
センシティブ
ゼレンスキー
ソメイヨシノ
ダイジェスト
ダイナミック
ダイヤモンド
ダウンタウン
ダウンロード
ダルビッシュ
チャンピオン
チャーシュー
チューニング
チューリップ
チョコレート
テイクアウト
テクノロジー
ディスプレイ
ディフェンス
ディレクター
トランペット
トレーニング
トーナメント
ドレッシング
ナレーション
ニューヨーク
ネットワーク
ノンストップ
ハイブリッド
ハラスメント
ハンドメイド
ハンバーガー
バックアップ
バッティング
バドミントン
バファローズ
バレンタイン
バレーボール
バーベキュー
パイナップル
パナソニック
パンフレット
パーフェクト
ピックアップ
ピンポイント
ファイターズ
ファクトリー
ファッション
ファンタジー
フィッシング
フィットネス
フィニッシュ
フィンランド
フェニックス
フットボール
フラペチーノ
フリーランス
フロンターレ
ブルーベリー
ブレイキング
ブロッコリー
プライベート
プラスチック
プレッシャー
プロジェクト
プロデュース
プロフィール
ヘッドライト
ベースボール
ホットケーキ
ボランティア
ボリューミー
ポストカード
ポップコーン
ポテンシャル
ポートレート
マクドナルド
マネジメント
マネージャー
ミッドナイト
ミュージアム
ミュージカル
ミュージック
ミーティング
メチャクチャ
メンテナンス
ユナイテッド
ユニバーサル
ユニフォーム
ライティング
ラインナップ
ランチタイム
ランドマーク
リアクション
リニューアル
リフレッシュ
リーズナブル
ロケーション
ロードスター
ヴィンテージ
素晴らしかっ
##//∇//)
##YMETAL
##akuten
##allery
##allows
##apporo
##arinos
##esents
##etooth
##hibuya
##itchen
##laying
##nivers
##okkaid
##orning
##ourney
##ukuoka
##ulions
##witter
##ストラクター
##ミネーション
##ースティック
)))))))
Android
ChatGPT
Fukuoka
MacBook
Netflix
Perfume
Rakuten
STARDOM
SUPERGT
Saitama
Sapporo
SnowMan
Special
Spotify
TOKYOFM
TSUTAYA
Twitter
Windows
YOSHIKI
YouTube
Youtube
albirex
kryhiru
morning
precure
sbhawks
thetime
twitter
wwwwwww
youtube
めっちゃくちゃ
アップグレード
アトラクション
アドベンチャー
アルビレックス
イノベーション
インターネット
インフルエンザ
ウーバーイーツ
エスカレーター
オーストラリア
オーディション
カウンセリング
カウントダウン
キャッシュレス
クライマックス
クリエイティブ
グラデーション
コメンテーター
コンディション
コントローラー
コーディネート
サウナイキタイ
サンダーバード
サンフレッチェ
ジャーナリスト
スタンディング
スタートアップ
スターバックス
スパークリング
スピードウェイ
スプラトゥーン
スーパースター
ソングライター
チェックアウト
チェンソーマン
チーズバーガー
トリートメント
ドラッグストア
ノンアルコール
ハウステンボス
バリエーション
パフォーマンス
パーソナリティ
ファンディング
フェスティバル
プログラミング
プロデューサー
プロモーション
ベルーナドーム
ペペロンチーノ
マーケティング
ミュージシャン
モチベーション
リベンジャーズ
レコーディング
ロックンロール
ローテーション
ワークショップ
ワーケーション
##//∇//)\
##Playing
##acebook
##anmaker
##aseball
##estival
##fecture
##ighters
##irthday
##lection
##okkaido
##okohama
##orldCup
##playing
##ristmas
##roshima
##stagram
Birthday
Facebook
Hokkaido
Japanese
Kanagawa
Official
SHOWROOM
SixTONES
Sponichi
Yokohama
YouTuber
baystars
birthday
fmarinos
kanayoru
lovelive
presents
swallows
yokohama
アコースティック
イルミネーション
インストラクター
キックボクシング
グレープフルーツ
シチュエーション
チャーシューメン
ドキュメンタリー
##--------
##alloween
##hotograp
##ーーーーーーーー
BABYMETAL
Bluetooth
Christmas
Instagram
consadole
wwwwwwwww
コミュニケーション
ーーーーーーーーー
##niversary
NowPlaying
Prefecture
chibalotte
seibulions
コワーキングスペース
##hotography
Anniversary
SixTONESANN
FIFAWorldCup
lovefighters
shindanmaker
